{
    "string_to_int": {
        " ": 0,
        "e": 1,
        "a": 2,
        "s": 3,
        "n": 4,
        "i": 5,
        "t": 6,
        "r": 7,
        "u": 8,
        "l": 9,
        "o": 10,
        "d": 11,
        "c": 12,
        "p": 13,
        "m": 14,
        "́": 15,
        ",": 16,
        "v": 17,
        "g": 18,
        "f": 19,
        "'": 20,
        "̀": 21,
        "h": 22,
        "q": 23,
        ".": 24,
        "b": 25,
        "x": 26,
        "1": 27,
        "L": 28,
        "y": 29,
        "\n": 30,
        "0": 31,
        "-": 32,
        "̂": 33,
        "C": 34,
        "A": 35,
        "9": 36,
        "j": 37,
        "S": 38,
        "2": 39,
        "P": 40,
        "I": 41,
        "E": 42,
        "M": 43,
        "(": 44,
        ")": 45,
        "B": 46,
        "D": 47,
        "8": 48,
        "’": 49,
        "k": 50,
        "«": 51,
        "»": 52,
        "5": 53,
        "3": 54,
        "7": 55,
        "T": 56,
        "R": 57,
        "F": 58,
        "4": 59,
        "6": 60,
        "G": 61,
        "z": 62,
        ":": 63,
        "N": 64,
        "J": 65,
        "H": 66,
        "V": 67,
        "O": 68,
        "w": 69,
        "̧": 70,
        "U": 71,
        "X": 72,
        "W": 73,
        "K": 74,
        ";": 75,
        "̈": 76,
        "œ": 77,
        "%": 78,
        "—": 79,
        "]": 80,
        "[": 81,
        "Q": 82,
        "Y": 83,
        "Z": 84,
        "/": 85,
        "̄": 86,
        "–": 87,
        "!": 88,
        "?": 89,
        "{": 90,
        "}": 91,
        "\"": 92,
        "+": 93,
        "\\": 94,
        "°": 95,
        "̌": 96,
        "‎": 97,
        "•": 98,
        "€": 99,
        "=": 100,
        "æ": 101,
        "ο": 102,
        "α": 103,
        "_": 104,
        "ι": 105,
        "̊": 106,
        "̃": 107,
        "×": 108,
        "Œ": 109,
        "ε": 110,
        "−": 111,
        "$": 112,
        "ν": 113,
        "&": 114,
        "ʼ": 115,
        "τ": 116,
        "ς": 117,
        "̣": 118,
        "μ": 119,
        "ρ": 120,
        "υ": 121,
        "η": 122,
        "λ": 123,
        "̓": 124,
        "π": 125,
        "′": 126,
        "κ": 127,
        "*": 128,
        "σ": 129,
        "ʻ": 130,
        "^": 131,
        "£": 132,
        "̇": 133,
        "ł": 134,
        "ˈ": 135,
        "̆": 136,
        "ω": 137,
        "ا": 138,
        "Đ": 139,
        "→": 140,
        "θ": 141,
        "δ": 142,
        "ɪ": 143,
        "ø": 144,
        "‰": 145,
        "“": 146,
        "γ": 147,
        "ð": 148,
        "”": 149,
        "а": 150,
        "ə": 151,
        "о": 152,
        "ː": 153,
        "͂": 154,
        "‐": 155,
        "|": 156,
        "и": 157,
        "§": 158,
        "#": 159,
        "ß": 160,
        "ħ": 161,
        "ɛ": 162,
        "⁡": 163,
        "е": 164,
        "̛": 165,
        "~": 166,
        "Þ": 167,
        "φ": 168,
        "ʊ": 169,
        "̯": 170,
        "±": 171,
        "⁄": 172,
        "ɔ": 173,
        "゙": 174,
        "ل": 175,
        "р": 176,
        "̔": 177,
        "ن": 178,
        "ı": 179,
        "к": 180,
        "̦": 181,
        "β": 182,
        "Ε": 183,
        "н": 184,
        "Α": 185,
        "χ": 186,
        "†": 187,
        "̉": 188,
        "‘": 189,
        "ي": 190,
        "ر": 191,
        "ʁ": 192,
        "с": 193,
        "Σ": 194,
        "Ł": 195,
        "ɑ": 196,
        "Æ": 197,
        "л": 198,
        "Δ": 199,
        "т": 200,
        "م": 201,
        "̨": 202,
        "و": 203,
        "@": 204,
        "♭": 205,
        "ب": 206,
        "Π": 207,
        "ʃ": 208,
        "س": 209,
        "ー": 210,
        "þ": 211,
        "ت": 212,
        "в": 213,
        "゚": 214,
        "д": 215,
        "の": 216,
        "ʒ": 217,
        "у": 218,
        "ζ": 219,
        "đ": 220,
        "Η": 221,
        "ʾ": 222,
        "■": 223,
        "п": 224,
        "ی": 225,
        "ン": 226,
        "`": 227,
        "Ι": 228,
        "د": 229,
        "י": 230,
        "ト": 231,
        "Κ": 232,
        "Ο": 233,
        "ʔ": 234,
        "ه": 235,
        "∑": 236,
        "ξ": 237,
        "Ω": 238,
        "ɯ": 239,
        "ع": 240,
        "♯": 241,
        "ス": 242,
        "·": 243,
        "͡": 244,
        "̸": 245,
        "ा": 246,
        "м": 247,
        "Ħ": 248,
        "Φ": 249,
        "≈": 250,
        "タ": 251,
        "ة": 252,
        "ク": 253,
        "Μ": 254,
        "ج": 255,
        "Ν": 256,
        "ʿ": 257,
        "ŋ": 258,
        "Λ": 259,
        "̋": 260,
        "Τ": 261,
        "Θ": 262,
        "シ": 263,
        "ـ": 264,
        "ق": 265,
        "ו": 266,
        "Β": 267,
        "ف": 268,
        "ほ": 269,
        "Ρ": 270,
        "フ": 271,
        "山": 272,
        "↔": 273,
        "‹": 274,
        "›": 275,
        "Ø": 276,
        "्": 277,
        "Γ": 278,
        "ش": 279,
        "ح": 280,
        "ル": 281,
        "ك": 282,
        "本": 283,
        "ɾ": 284,
        "ר": 285,
        "日": 286,
        "С": 287,
        "त": 288,
        "ɒ": 289,
        "א": 290,
        "∈": 291,
        "ͅ": 292,
        "म": 293,
        "カ": 294,
        "リ": 295,
        "道": 296,
        "イ": 297,
        "ь": 298,
        "ա": 299,
        "𐌰": 300,
        "̮": 301,
        "ッ": 302,
        "ط": 303,
        "コ": 304,
        "ы": 305,
        "人": 306,
        "б": 307,
        "\t": 308,
        "ɤ": 309,
        "ɹ": 310,
        "≤": 311,
        "ɡ": 312,
        "ה": 313,
        "Υ": 314,
        "г": 315,
        "大": 316,
        "ј": 317,
        "ш": 318,
        "―": 319,
        "ˌ": 320,
        "ウ": 321,
        "з": 322,
        "∞": 323,
        "中": 324,
        "ל": 325,
        "ʌ": 326,
        "・": 327,
        "נ": 328,
        "ん": 329,
        "‿": 330,
        "َ": 331,
        "ٔ": 332,
        "̱": 333,
        "三": 334,
        "ز": 335,
        "ラ": 336,
        "マ": 337,
        "神": 338,
        "П": 339,
        "خ": 340,
        "⋅": 341,
        "ד": 342,
        "キ": 343,
        "ヒ": 344,
        "ア": 345,
        "К": 346,
        "た": 347,
        "国": 348,
        "⊙": 349,
        "ב": 350,
        "∗": 351,
        "ש": 352,
        "ʹ": 353,
        "ם": 354,
        "ص": 355,
        "х": 356,
        "ч": 357,
        "説": 358,
        "स": 359,
        "ȝ": 360,
        "文": 361,
        "ホ": 362,
        "Χ": 363,
        "セ": 364,
        "ム": 365,
        "र": 366,
        "∴": 367,
        "ʂ": 368,
        "Ð": 369,
        "技": 370,
        "書": 371,
        "ת": 372,
        "Р": 373,
        "身": 374,
        "子": 375,
        "伝": 376,
        "ψ": 377,
        "画": 378,
        "東": 379,
        "天": 380,
        "ɐ": 381,
        "ि": 382,
        "ɬ": 383,
        "ى": 384,
        "√": 385,
        "王": 386,
        "ュ": 387,
        "ハ": 388,
        "平": 389,
        "し": 390,
        "ח": 391,
        "⟩": 392,
        "Б": 393,
        "А": 394,
        "ロ": 395,
        "̥": 396,
        "ヤ": 397,
        "ک": 398,
        "я": 399,
        "ャ": 400,
        "מ": 401,
        "二": 402,
        "भ": 403,
        "न": 404,
        "व": 405,
        "ʉ": 406,
        "ն": 407,
        "∫": 408,
        "ָ": 409,
        "ס": 410,
        "Ϝ": 411,
        "ּ": 412,
        "字": 413,
        "名": 414,
        "书": 415,
        "ニ": 416,
        "家": 417,
        "女": 418,
        "ナ": 419,
        "ր": 420,
        "ц": 421,
        "њ": 422,
        "─": 423,
        "Г": 424,
        "अ": 425,
        "和": 426,
        "𐍄": 427,
        "ե": 428,
        "𐍃": 429,
        "♮": 430,
        "ϝ": 431,
        "て": 432,
        "レ": 433,
        "テ": 434,
        "ィ": 435,
        "ᅡ": 436,
        "会": 437,
        "法": 438,
        "民": 439,
        "ِ": 440,
        "द": 441,
        "金": 442,
        "ן": 443,
        "И": 444,
        "漢": 445,
        "み": 446,
        "き": 447,
        "ァ": 448,
        "ذ": 449,
        "∨": 450,
        "Ψ": 451,
        "高": 452,
        "メ": 453,
        "オ": 454,
        "ᆼ": 455,
        "ո": 456,
        "原": 457,
        "合": 458,
        "い": 459,
        "ф": 460,
        "我": 461,
        "一": 462,
        "星": 463,
        "寺": 464,
        "ɣ": 465,
        "ǝ": 466,
        "˥": 467,
        "ォ": 468,
        "没": 469,
        "𐌹": 470,
        "半": 471,
        "ɜ": 472,
        "新": 473,
        "重": 474,
        "る": 475,
        "モ": 476,
        "∇": 477,
        "太": 478,
        "Л": 479,
        "草": 480,
        "ᄋ": 481,
        "千": 482,
        "江": 483,
        "戸": 484,
        "М": 485,
        "ू": 486,
        "प": 487,
        "源": 488,
        "̪": 489,
        "ُ": 490,
        "西": 491,
        "غ": 492,
        "立": 493,
        "ㄧ": 494,
        "∀": 495,
        "‖": 496,
        "ϛ": 497,
        "か": 498,
        "サ": 499,
        "Е": 500,
        "„": 501,
        "は": 502,
        "ノ": 503,
        "Ζ": 504,
        "之": 505,
        "⇔": 506,
        "部": 507,
        "つ": 508,
        "Ϙ": 509,
        "≃": 510,
        "Д": 511,
        "安": 512,
        "時": 513,
        "ა": 514,
        "љ": 515,
        "ɲ": 516,
        "Т": 517,
        "海": 518,
        "荒": 519,
        "皇": 520,
        "ّ": 521,
        "空": 522,
        "華": 523,
        "ʀ": 524,
        "ら": 525,
        "豆": 526,
        "̩": 527,
        "̞": 528,
        "唐": 529,
        "տ": 530,
        "𐌽": 531,
        "県": 532,
        "漫": 533,
        "Հ": 534,
        "մ": 535,
        "ٓ": 536,
        "型": 537,
        "ʏ": 538,
        "ע": 539,
        "代": 540,
        "仮": 541,
        "音": 542,
        "ケ": 543,
        "青": 544,
        "پ": 545,
        "と": 546,
        "絵": 547,
        "吉": 548,
        "年": 549,
        "ი": 550,
        "土": 551,
        "ミ": 552,
        "特": 553,
        "ϩ": 554,
        "生": 555,
        "体": 556,
        "ْ": 557,
        "ं": 558,
        "國": 559,
        "石": 560,
        "¬": 561,
        "宝": 562,
        "ო": 563,
        "墳": 564,
        "楽": 565,
        "座": 566,
        "گ": 567,
        "≥": 568,
        "周": 569,
        "鬼": 570,
        "十": 571,
        "ふ": 572,
        "り": 573,
        "な": 574,
        "ק": 575,
        "В": 576,
        "ض": 577,
        "数": 578,
        "独": 579,
        "に": 580,
        "真": 581,
        "月": 582,
        "朝": 583,
        "学": 584,
        "ᄌ": 585,
        "老": 586,
        "አ": 587,
        "ᆫ": 588,
        "О": 589,
        "ւ": 590,
        "長": 591,
        "ג": 592,
        "福": 593,
        "®": 594,
        "小": 595,
        "政": 596,
        "光": 597,
        "ʓ": 598,
        "男": 599,
        "ह": 600,
        "野": 601,
        "鉄": 602,
        "夫": 603,
        "华": 604,
        "˧": 605,
        "¢": 606,
        "不": 607,
        "ग": 608,
        "̻": 609,
        "っ": 610,
        "𐍉": 611,
        "玄": 612,
        "奘": 613,
        "藏": 614,
        "Ե": 615,
        "ի": 616,
        "え": 617,
        "ʤ": 618,
        "כ": 619,
        "ϙ": 620,
        "古": 621,
        "事": 622,
        "五": 623,
        "語": 624,
        "ث": 625,
        "洛": 626,
        "治": 627,
        "⟨": 628,
        "ᅮ": 629,
        "教": 630,
        "德": 631,
        "義": 632,
        "ስ": 633,
        "碁": 634,
        "棋": 635,
        "軍": 636,
        "水": 637,
        "世": 638,
        "行": 639,
        "ე": 640,
        "堂": 641,
        "戦": 642,
        "院": 643,
        "木": 644,
        "島": 645,
        "ひ": 646,
        "お": 647,
        "क": 648,
        "ु": 649,
        "ʐ": 650,
        "ध": 651,
        "ம": 652,
        "ष": 653,
        "ʕ": 654,
        "有": 655,
        "尋": 656,
        "ツ": 657,
        "式": 658,
        "¡": 659,
        "尔": 660,
        "რ": 661,
        "便": 662,
        "Ա": 663,
        "ս": 664,
        "յ": 665,
        "𐌸": 666,
        "孫": 667,
        "悟": 668,
        "流": 669,
        "風": 670,
        "ㄨ": 671,
        "ʅ": 672,
        "気": 673,
        "武": 674,
        "ְ": 675,
        "פ": 676,
        "記": 677,
        "集": 678,
        "見": 679,
        "食": 680,
        "ظ": 681,
        "ʧ": 682,
        "限": 683,
        "⌈": 684,
        "⌉": 685,
        "ⴲ": 686,
        "宋": 687,
        "北": 688,
        "南": 689,
        "李": 690,
        "魔": 691,
        "首": 692,
        "慎": 693,
        "解": 694,
        "阝": 695,
        "羊": 696,
        "心": 697,
        "ж": 698,
        "ን": 699,
        "ሳ": 700,
        "ር": 701,
        "ባ": 702,
        "活": 703,
        "動": 704,
        "ɦ": 705,
        "発": 706,
        "围": 707,
        "阳": 708,
        "白": 709,
        "ᄉ": 710,
        "ᅵ": 711,
        "ղ": 712,
        "浮": 713,
        "藤": 714,
        "富": 715,
        "歌": 716,
        "物": 717,
        "化": 718,
        "ソ": 719,
        "京": 720,
        "მ": 721,
        "џ": 722,
        "Ч": 723,
        "ワ": 724,
        "們": 725,
        "们": 726,
        "ል": 727,
        "内": 728,
        "速": 729,
        "路": 730,
        "്": 731,
        "ᄃ": 732,
        "ॐ": 733,
        "Ц": 734,
        "ヘ": 735,
        "後": 736,
        "倉": 737,
        "宗": 738,
        "冒": 739,
        "険": 740,
        "社": 741,
        "湖": 742,
        "宮": 743,
        "ʎ": 744,
        "骨": 745,
        "े": 746,
        "ቴ": 747,
        "ይ": 748,
        "川": 749,
        "்": 750,
        "य": 751,
        "⟶": 752,
        "今": 753,
        "洋": 754,
        "下": 755,
        "共": 756,
        "那": 757,
        "⋯": 758,
        "ɥ": 759,
        "ˉ": 760,
        "ʟ": 761,
        "आ": 762,
        "ः": 763,
        "間": 764,
        "花": 765,
        "ǃ": 766,
        "蒙": 767,
        "利": 768,
        "∂": 769,
        "篆": 770,
        "楷": 771,
        "ா": 772,
        "ә": 773,
        "劫": 774,
        "𐌿": 775,
        "𐍈": 776,
        "𐌴": 777,
        "𐍅": 778,
        "八": 779,
        "角": 780,
        "方": 781,
        "岡": 782,
        "倶": 783,
        "毘": 784,
        "盧": 785,
        "士": 786,
        "器": 787,
        "剛": 788,
        "ㄥ": 789,
        "ɿ": 790,
        "模": 791,
        "趣": 792,
        "味": 793,
        "蒿": 794,
        "經": 795,
        "ֵ": 796,
        "ϡ": 797,
        "ء": 798,
        "仁": 799,
        "万": 800,
        "読": 801,
        "聞": 802,
        "産": 803,
        "経": 804,
        "ま": 805,
        "す": 806,
        "赤": 807,
        "左": 808,
        "↑": 809,
        "צ": 810,
        "チ": 811,
        "⊕": 812,
        "⊖": 813,
        "♁": 814,
        "≡": 815,
        "康": 816,
        "ᄒ": 817,
        "Ξ": 818,
        "無": 819,
        "羲": 820,
        "け": 821,
        "ં": 822,
        "ዮ": 823,
        "ራ": 824,
        "ካ": 825,
        "መ": 826,
        "◻": 827,
        "写": 828,
        "囲": 829,
        "提": 830,
        "総": 831,
        "ョ": 832,
        "椿": 833,
        "剣": 834,
        "ᅭ": 835,
        "ᄀ": 836,
        "ᅥ": 837,
        "こ": 838,
        "版": 839,
        "色": 840,
        "春": 841,
        "者": 842,
        "百": 843,
        "明": 844,
        "開": 845,
        "を": 846,
        "ნ": 847,
        "買": 848,
        "买": 849,
        "你": 850,
        "他": 851,
        "እ": 852,
        "ז": 853,
        "♄": 854,
        "¥": 855,
        "漠": 856,
        "З": 857,
        "頼": 858,
        "河": 859,
        "臣": 860,
        "盛": 861,
        "徳": 862,
        "衡": 863,
        "将": 864,
        "州": 865,
        "峰": 866,
        "Ϡ": 867,
        "髪": 868,
        "機": 869,
        "ዳ": 870,
        "ማ": 871,
        "ያ": 872,
        "ው": 873,
        "史": 874,
        "幸": 875,
        "登": 876,
        "城": 877,
        "戒": 878,
        "正": 879,
        "ल": 880,
        "ٌ": 881,
        "ு": 882,
        "ச": 883,
        "表": 884,
        "保": 885,
        "良": 886,
        "田": 887,
        "ネ": 888,
        "系": 889,
        "˩": 890,
        "族": 891,
        "議": 892,
        "所": 893,
        "地": 894,
        "区": 895,
        "号": 896,
        "і": 897,
        "々": 898,
        "ⵖ": 899,
        "ⵄ": 900,
        "ⴳ": 901,
        "∩": 902,
        "͆": 903,
        "э": 904,
        "Ɛ": 905,
        "ろ": 906,
        "ी": 907,
        "菩": 908,
        "薩": 909,
        "ს": 910,
        "ხ": 911,
        "甲": 912,
        "劉": 913,
        "ٕ": 914,
        "ன": 915,
        "շ": 916,
        "ƕ": 917,
        "七": 918,
        "侍": 919,
        "少": 920,
        "く": 921,
        "素": 922,
        "陳": 923,
        "君": 924,
        "洪": 925,
        "手": 926,
        "姫": 927,
        "浄": 928,
        "१": 929,
        "८": 930,
        "५": 931,
        "७": 932,
        "ख": 933,
        "ड": 934,
        "լ": 935,
        "©": 936,
        "ㄣ": 937,
        "ㄩ": 938,
        "柔": 939,
        "章": 940,
        "算": 941,
        "ִ": 942,
        "ล": 943,
        "า": 944,
        "Ϛ": 945,
        "帝": 946,
        "吸": 947,
        "血": 948,
        "葉": 949,
        "丁": 950,
        "右": 951,
        "←": 952,
        "振": 953,
        "、": 954,
        "「": 955,
        "」": 956,
        "₤": 957,
        "緑": 958,
        "杨": 959,
        "辉": 960,
        "楊": 961,
        "輝": 962,
        "鍜": 963,
        "起": 964,
        "刊": 965,
        "Х": 966,
        "靖": 967,
        "ᆨ": 968,
        "爲": 969,
        "仙": 970,
        "难": 971,
        "功": 972,
        "好": 973,
        "媽": 974,
        "馬": 975,
        "后": 976,
        "許": 977,
        "许": 978,
        "典": 979,
        "竹": 980,
        "邑": 981,
        "阜": 982,
        "戈": 983,
        "ગ": 984,
        "ો": 985,
        "ተ": 986,
        "ኛ": 987,
        "በ": 988,
        "ዝ": 989,
        "ብ": 990,
        "ھ": 991,
        "ٹ": 992,
        "ʈ": 993,
        "Н": 994,
        "陽": 995,
        "論": 996,
        "发": 997,
        "论": 998,
        "裏": 999,
        "供": 1000,
        "司": 1001,
        "令": 1002,
        "ϟ": 1003,
        "皮": 1004,
        "聖": 1005,
        "ᅦ": 1006,
        "ᅩ": 1007,
        "‌": 1008,
        "Ն": 1009,
        "Ջ": 1010,
        "点": 1011,
        "彩": 1012,
        "著": 1013,
        "訳": 1014,
        "同": 1015,
        "朋": 1016,
        "舎": 1017,
        "出": 1018,
        "鏡": 1019,
        "楼": 1020,
        "景": 1021,
        "暦": 1022,
        "虫": 1023,
        "鳥": 1024,
        "街": 1025,
        "氏": 1026,
        "英": 1027,
        "雄": 1028,
        "猫": 1029,
        "ბ": 1030,
        "秋": 1031,
        "エ": 1032,
        "У": 1033,
        "些": 1034,
        "∼": 1035,
        "尾": 1036,
        "都": 1037,
        "ኤ": 1038,
        "മ": 1039,
        "ന": 1040,
        "ാ": 1041,
        "റ": 1042,
        "乐": 1043,
        "ᅧ": 1044,
        "ᆷ": 1045,
        "ᄇ": 1046,
        "Ф": 1047,
        "恩": 1048,
        "来": 1049,
        "科": 1050,
        "̅": 1051,
        "貓": 1052,
        "Ш": 1053,
        "ᵻ": 1054,
        "↗": 1055,
        "↘": 1056,
        "餐": 1057,
        "永": 1058,
        "井": 1059,
        "鎌": 1060,
        "僧": 1061,
        "興": 1062,
        "屋": 1063,
        "府": 1064,
        "貌": 1065,
        "銀": 1066,
        "ᵹ": 1067,
        "ግ": 1068,
        "ዊ": 1069,
        "ም": 1070,
        "ኘ": 1071,
        "ю": 1072,
        "衆": 1073,
        "禅": 1074,
        "祠": 1075,
        "拝": 1076,
        "祭": 1077,
        "仏": 1078,
        "僵": 1079,
        "屍": 1080,
        "ˁ": 1081,
        "回": 1082,
        "炮": 1083,
        "雲": 1084,
        "เ": 1085,
        "ጌ": 1086,
        "ጣ": 1087,
        "ቱ": 1088,
        "ሃ": 1089,
        "ኢ": 1090,
        "ት": 1091,
        "ጵ": 1092,
        "મ": 1093,
        "દ": 1094,
        "ા": 1095,
        "ौ": 1096,
        "広": 1097,
        "ዎ": 1098,
        "ድ": 1099,
        "ሮ": 1100,
        "இ": 1101,
        "ो": 1102,
        "護": 1103,
        "黒": 1104,
        "泉": 1105,
        "奈": 1106,
        "御": 1107,
        "誕": 1108,
        "理": 1109,
        "ֹ": 1110,
        "支": 1111,
        "省": 1112,
        "直": 1113,
        "汉": 1114,
        "元": 1115,
        "经": 1116,
        "ত": 1117,
        "য": 1118,
        "★": 1119,
        "Я": 1120,
        "̠": 1121,
        "盤": 1122,
        "ɫ": 1123,
        "ɰ": 1124,
        "ɸ": 1125,
        "ט": 1126,
        "⇒": 1127,
        "♃": 1128,
        "荻": 1129,
        "財": 1130,
        "ɝ": 1131,
        "亚": 1132,
        "庇": 1133,
        "株": 1134,
        "श": 1135,
        "臓": 1136,
        "ɚ": 1137,
        "埵": 1138,
        "ტ": 1139,
        "戰": 1140,
        "殷": 1141,
        "松": 1142,
        "秦": 1143,
        "始": 1144,
        "獻": 1145,
        "晉": 1146,
        "ⴰ": 1147,
        "ⵢ": 1148,
        "荷": 1149,
        "兰": 1150,
        "苗": 1151,
        "ப": 1152,
        "ி": 1153,
        "ர": 1154,
        "ҳ": 1155,
        "↦": 1156,
        "ܢ": 1157,
        "乙": 1158,
        "丑": 1159,
        "さ": 1160,
        "勝": 1161,
        "段": 1162,
        "四": 1163,
        "𐌻": 1164,
        "𐌺": 1165,
        "𐌷": 1166,
        "𐌳": 1167,
        "円": 1168,
        "前": 1169,
        "応": 1170,
        "蘇": 1171,
        "熊": 1172,
        "塚": 1173,
        "玉": 1174,
        "多": 1175,
        "郎": 1176,
        "友": 1177,
        "婦": 1178,
        "協": 1179,
        "游": 1180,
        "记": 1181,
        "陈": 1182,
        "釋": 1183,
        "迦": 1184,
        "牟": 1185,
        "尼": 1186,
        "龍": 1187,
        "豬": 1188,
        "沙": 1189,
        "尚": 1190,
        "嬌": 1191,
        "師": 1192,
        "帽": 1193,
        "遮": 1194,
        "蟬": 1195,
        "̭": 1196,
        "現": 1197,
        "谷": 1198,
        "形": 1199,
        "瑠": 1200,
        "璃": 1201,
        "ⵉ": 1202,
        "ⵏ": 1203,
        "洗": 1204,
        "‡": 1205,
        "ք": 1206,
        "Թ": 1207,
        "պ": 1208,
        "Պ": 1209,
        "う": 1210,
        "ち": 1211,
        "ゃ": 1212,
        "ㄅ": 1213,
        "注": 1214,
        "符": 1215,
        "ㄖ": 1216,
        "ㄦ": 1217,
        "ㄢ": 1218,
        "ㄝ": 1219,
        "《": 1220,
        "》": 1221,
        "入": 1222,
        "転": 1223,
        "換": 1224,
        "姿": 1225,
        "勢": 1226,
        "構": 1227,
        "ា": 1228,
        "九": 1229,
        "術": 1230,
        "髀": 1231,
        "ׂ": 1232,
        "ธ": 1233,
        "ุ": 1234,
        "ี": 1235,
        "ป": 1236,
        "ร": 1237,
        "ิ": 1238,
        "ศ": 1239,
        "น": 1240,
        "≟": 1241,
        "翔": 1242,
        "鶴": 1243,
        "Ͷ": 1244,
        "Ⲋ": 1245,
        "ᚠ": 1246,
        "Ւ": 1247,
        "闇": 1248,
        "ֶ": 1249,
        "ַ": 1250,
        "『": 1251,
        "』": 1252,
        "片": 1253,
        "龘": 1254,
        "雷": 1255,
        "䨻": 1256,
        "訓": 1257,
        "売": 1258,
        "毎": 1259,
        "旗": 1260,
        "↓": 1261,
        "へ": 1262,
        "。": 1263,
        "縦": 1264,
        "横": 1265,
        "ꞝ": 1266,
        "件": 1267,
        "ʝ": 1268,
        "恥": 1269,
        "朱": 1270,
        "親": 1271,
        "亲": 1272,
        "說": 1273,
        "说": 1274,
        "彙": 1275,
        "汇": 1276,
        "梅": 1277,
        "膺": 1278,
        "祚": 1279,
        "熙": 1280,
        "妞": 1281,
        "她": 1282,
        "姓": 1283,
        "妾": 1284,
        "妆": 1285,
        "奿": 1286,
        "妝": 1287,
        "宀": 1288,
        "邗": 1289,
        "阞": 1290,
        "飠": 1291,
        "饣": 1292,
        "鬯": 1293,
        "鬱": 1294,
        "羢": 1295,
        "儀": 1296,
        "羬": 1297,
        "忄": 1298,
        "欠": 1299,
        "番": 1300,
        "ે": 1301,
        "ડ": 1302,
        "ሐ": 1303,
        "ጫ": 1304,
        "ڀ": 1305,
        "ٽ": 1306,
        "̍": 1307,
        "研": 1308,
        "究": 1309,
        "͜": 1310,
        "第": 1311,
        "防": 1312,
        "衛": 1313,
        "Ϟ": 1314,
        "Ҁ": 1315,
        "臭": 1316,
        "树": 1317,
        "凤": 1318,
        "眼": 1319,
        "ᆸ": 1320,
        "ᄎ": 1321,
        "⇌": 1322,
        "敦": 1323,
        "恋": 1324,
        "引": 1325,
        "箕": 1326,
        "嶽": 1327,
        "六": 1328,
        "美": 1329,
        "役": 1330,
        "撰": 1331,
        "狂": 1332,
        "潮": 1333,
        "干": 1334,
        "雨": 1335,
        "靴": 1336,
        "დ": 1337,
        "ვ": 1338,
        "თ": 1339,
        "ღ": 1340,
        "შ": 1341,
        "ლ": 1342,
        "盟": 1343,
        "Э": 1344,
        "兩": 1345,
        "两": 1346,
        "萩": 1347,
        "望": 1348,
        "選": 1349,
        "組": 1350,
        "性": 1351,
        "ቤ": 1352,
        "׳": 1353,
        "次": 1354,
        "േ": 1355,
        "ജ": 1356,
        "ൈ": 1357,
        "ശ": 1358,
        "യ": 1359,
        "ള": 1360,
        "ൻ": 1361,
        "∅": 1362,
        "♫": 1363,
        "面": 1364,
        "ᅪ": 1365,
        "ᄂ": 1366,
        "ᄏ": 1367,
        "Ж": 1368,
        "來": 1369,
        "央": 1370,
        "红": 1371,
        "队": 1372,
        "Ϧ": 1373,
        "ϧ": 1374,
        "ϭ": 1375,
        "ϯ": 1376,
        "ϥ": 1377,
        "☿": 1378,
        "辰": 1379,
        "猞": 1380,
        "猁": 1381,
        "ђ": 1382,
        "ћ": 1383,
        "҅": 1384,
        "҆": 1385,
        "͵": 1386,
        "盒": 1387,
        "厅": 1388,
        "单": 1389,
        "位": 1390,
        "承": 1391,
        "寿": 1392,
        "乱": 1393,
        "清": 1394,
        "以": 1395,
        "条": 1396,
        "仲": 1397,
        "曽": 1398,
        "知": 1399,
        "兵": 1400,
        "延": 1401,
        "旭": 1402,
        "範": 1403,
        "瀬": 1404,
        "征": 1405,
        "夷": 1406,
        "幕": 1407,
        "秀": 1408,
        "弁": 1409,
        "慶": 1410,
        "奥": 1411,
        "吾": 1412,
        "妻": 1413,
        "Ͳ": 1414,
        "ͳ": 1415,
        "ϻ": 1416,
        "Ϻ": 1417,
        "及": 1418,
        "警": 1419,
        "察": 1420,
        "雇": 1421,
        "用": 1422,
        "均": 1423,
        "等": 1424,
        "ኒ": 1425,
        "ክ": 1426,
        "ህ": 1427,
        "ለ": 1428,
        "雪": 1429,
        "浪": 1430,
        "厳": 1431,
        "殿": 1432,
        "壇": 1433,
        "ኰ": 1434,
        "ወ": 1435,
        "ደ": 1436,
        "ሚ": 1437,
        "ቃ": 1438,
        "ъ": 1439,
        "抜": 1440,
        "尸": 1441,
        "殭": 1442,
        "魄": 1443,
        "襄": 1444,
        "豹": 1445,
        "ส": 1446,
        "ื": 1447,
        "อ": 1448,
        "ย": 1449,
        "ม": 1450,
        "ฆ": 1451,
        "腸": 1452,
        "̤": 1453,
        "ዘ": 1454,
        "የ": 1455,
        "̺": 1456,
        "હ": 1457,
        "ન": 1458,
        "સ": 1459,
        "ક": 1460,
        "ર": 1461,
        "ચ": 1462,
        "ધ": 1463,
        "ી": 1464,
        "ዓ": 1465,
        "ፄ": 1466,
        "ሉ": 1467,
        "ታ": 1468,
        "ጠ": 1469,
        "ቅ": 1470,
        "ந": 1471,
        "த": 1472,
        "ய": 1473,
        "״": 1474,
        "ज": 1475,
        "ヮ": 1476,
        "凱": 1477,
        "宏": 1478,
        "忠": 1479,
        "列": 1480,
        "邦": 1481,
        "魂": 1482,
        "˨": 1483,
        "˦": 1484,
        "照": 1485,
        "棚": 1486,
        "陛": 1487,
        "閣": 1488,
        "務": 1489,
        "参": 1490,
        "最": 1491,
        "裁": 1492,
        "判": 1493,
        "官": 1494,
        "全": 1495,
        "障": 1496,
        "兜": 1497,
        "町": 1498,
        "ɻ": 1499,
        "印": 1500,
        "度": 1501,
        "錢": 1502,
        "穆": 1503,
        "陸": 1504,
        "區": 1505,
        "自": 1506,
        "辖": 1507,
        "市": 1508,
        "别": 1509,
        "个": 1510,
        "户": 1511,
        "圓": 1512,
        "币": 1513,
        "幣": 1514,
        "易": 1515,
        "স": 1516,
        "্": 1517,
        "জ": 1518,
        "ি": 1519,
        "র": 1520,
        "া": 1521,
        "়": 1522,
        "ˑ": 1523,
        "ɘ": 1524,
        "☧": 1525,
        "ײ": 1526,
        "狼": 1527,
        "羌": 1528,
        "⊥": 1529,
        "∧": 1530,
        "悪": 1531,
        "曜": 1532,
        "隠": 1533,
        "津": 1534,
        "波": 1535,
        "要": 1536,
        "虹": 1537,
        "⚜": 1538,
        "𐀈": 1539,
        "𐀁": 1540,
        "𐀫": 1541,
        "【": 1542,
        "】": 1543,
        "任": 1544,
        "蹴": 1545,
        "鞠": 1546,
        "ʋ": 1547,
        "饼": 1548,
        "ユ": 1549,
        "嫁": 1550,
        "団": 1551,
        "茶": 1552,
        "嫌": 1553,
        "夏": 1554,
        "休": 1555,
        "ृ": 1556,
        "च": 1557,
        "ब": 1558,
        "ण": 1559,
        "悉": 1560,
        "昙": 1561,
        "ქ": 1562,
        "გ": 1563,
        "ზ": 1564,
        "ფ": 1565,
        "战": 1566,
        "☉": 1567,
        "纟": 1568,
        "杉": 1569,
        "問": 1570,
        "童": 1571,
        "賈": 1572,
        "隱": 1573,
        "遇": 1574,
        "商": 1575,
        "斯": 1576,
        "程": 1577,
        "邈": 1578,
        "隸": 1579,
        "昇": 1580,
        "ⵜ": 1581,
        "க": 1582,
        "ல": 1583,
        "葱": 1584,
        "嶺": 1585,
        "ې": 1586,
        "帕": 1587,
        "米": 1588,
        "∏": 1589,
        "∪": 1590,
        "⩾": 1591,
        "ɨ": 1592,
        "ܝ": 1593,
        "ܘ": 1594,
        "ܐ": 1595,
        "客": 1596,
        "己": 1597,
        "宅": 1598,
        "急": 1599,
        "言": 1600,
        "や": 1601,
        "包": 1602,
        "れ": 1603,
        "ீ": 1604,
        "வ": 1605,
        "ஜ": 1606,
        "ᄑ": 1607,
        "ᅢ": 1608,
        "遠": 1609,
        "負": 1610,
        "押": 1611,
        "潰": 1612,
        "ヨ": 1613,
        "両": 1614,
        "长": 1615,
        "曲": 1616,
        "目": 1617,
        "𐌼": 1618,
        "𐌾": 1619,
        "𐌲": 1620,
        "ʍ": 1621,
        "♅": 1622,
        "⛢": 1623,
        "📞": 1624,
        "︠": 1625,
        "︡": 1626,
        "埴": 1627,
        "輪": 1628,
        "弧": 1629,
        "陵": 1630,
        "資": 1631,
        "足": 1632,
        "舞": 1633,
        "台": 1634,
        "飛": 1635,
        "崎": 1636,
        "岩": 1637,
        "紀": 1638,
        "船": 1639,
        "阿": 1640,
        "根": 1641,
        "装": 1642,
        "飾": 1643,
        "林": 1644,
        "磐": 1645,
        "静": 1646,
        "穴": 1647,
        "埼": 1648,
        "Մ": 1649,
        "ծ": 1650,
        "因": 1651,
        "果": 1652,
        "髷": 1653,
        "刀": 1654,
        "村": 1655,
        "錦": 1656,
        "報": 1657,
        "庭": 1658,
        "幼": 1659,
        "樺": 1660,
        "奉": 1661,
        "公": 1662,
        "主": 1663,
        "宍": 1664,
        "啓": 1665,
        "腕": 1666,
        "慧": 1667,
        "唯": 1668,
        "識": 1669,
        "遊": 1670,
        "净": 1671,
        "淨": 1672,
        "ᅳ": 1673,
        "纵": 1674,
        "觀": 1675,
        "蕊": 1676,
        "狀": 1677,
        "溫": 1678,
        "滿": 1679,
        "張": 1680,
        "萬": 1681,
        "店": 1682,
        "彪": 1683,
        "龙": 1684,
        "极": 1685,
        "袈": 1686,
        "裟": 1687,
        "指": 1688,
        "师": 1689,
        "傅": 1690,
        "檀": 1691,
        "香": 1692,
        "佛": 1693,
        "錫": 1694,
        "杖": 1695,
        "象": 1696,
        "牙": 1697,
        "岸": 1698,
        "迪": 1699,
        "瓦": 1700,
        "ڨ": 1701,
        "ẞ": 1702,
        "Ʃ": 1703,
        "ٍ": 1704,
        "ڢ": 1705,
        "ڧ": 1706,
        "颪": 1707,
        "補": 1708,
        "陀": 1709,
        "圍": 1710,
        "云": 1711,
        "笥": 1712,
        "め": 1713,
        "昔": 1714,
        "使": 1715,
        "優": 1716,
        "砂": 1717,
        "未": 1718,
        "危": 1719,
        "♆": 1720,
        "兔": 1721,
        "♇": 1722,
        "ⵡ": 1723,
        "ⵛ": 1724,
        "籌": 1725,
        "粧": 1726,
        "室": 1727,
        "厠": 1728,
        "憚": 1729,
        "虎": 1730,
        "温": 1731,
        "": 1732,
        "थ": 1733,
        "能": 1734,
        "観": 1735,
        "喜": 1736,
        "Բ": 1737,
        "Ռ": 1738,
        "椒": 1739,
        "♥": 1740,
        "ょ": 1741,
        "笑": 1742,
        "送": 1743,
        "念": 1744,
        "姉": 1745,
        "妹": 1746,
        "畑": 1747,
        "ゅ": 1748,
        "も": 1749,
        "編": 1750,
        "啟": 1751,
        "庚": 1752,
        "♀": 1753,
        "ㄆ": 1754,
        "ㄇ": 1755,
        "ㄈ": 1756,
        "號": 1757,
        "ㄤ": 1758,
        "˞": 1759,
        "ㄡ": 1760,
        "ㄟ": 1761,
        "ㄜ": 1762,
        "ɖ": 1763,
        "ʣ": 1764,
        "ʦ": 1765,
        "ㄓ": 1766,
        "ㄔ": 1767,
        "ㄕ": 1768,
        "ㄗ": 1769,
        "ㄘ": 1770,
        "ㄙ": 1771,
        "渙": 1772,
        "鸛": 1773,
        "雀": 1774,
        "樓": 1775,
        "ㄌ": 1776,
        "作": 1777,
        "炒": 1778,
        "争": 1779,
        "ច": 1780,
        "ម": 1781,
        "្": 1782,
        "ប": 1783,
        "៉": 1784,
        "占": 1785,
        "常": 1786,
        "e ": 1787,
        "s ": 1788,
        "é": 1789,
        "t ": 1790,
        "en": 1791,
        "es ": 1792,
        "on": 1793,
        ", ": 1794,
        "an": 1795,
        "de ": 1796,
        "r ": 1797,
        "a ": 1798,
        "ti": 1799,
        "ou": 1800,
        "qu": 1801,
        "in": 1802,
        "le ": 1803,
        "es": 1804,
        "er": 1805,
        "la ": 1806,
        "tr": 1807,
        "ai": 1808,
        "ar": 1809,
        ". ": 1810,
        "au": 1811,
        "eu": 1812,
        "et ": 1813,
        "or": 1814,
        "on ": 1815,
        "un": 1816,
        "is": 1817,
        "em": 1818,
        "ent ": 1819,
        "al": 1820,
        "pr": 1821,
        "̀ ": 1822,
        "les ": 1823,
        "è": 1824,
        "om": 1825,
        "à ": 1826,
        "il": 1827,
        "el": 1828,
        "en ": 1829,
        "re ": 1830,
        "si": 1831,
        "ch": 1832,
        "du": 1833,
        "des ": 1834,
        "l'": 1835,
        "é ": 1836,
        "e, ": 1837,
        "te ": 1838,
        "pa": 1839,
        "er ": 1840,
        "oi": 1841,
        "que ": 1842,
        "ri": 1843,
        "du ": 1844,
        "d'": 1845,
        "ati": 1846,
        "li": 1847,
        "con": 1848,
        "su": 1849,
        "est ": 1850,
        "i ": 1851,
        "dé": 1852,
        "lu": 1853,
        "re": 1854,
        "av": 1855,
        "di": 1856,
        "un ": 1857,
        "ce ": 1858,
        "x ": 1859,
        "ans ": 1860,
        "ant ": 1861,
        "at": 1862,
        "une ": 1863,
        "ré": 1864,
        "me ": 1865,
        "se ": 1866,
        "it": 1867,
        ".\n": 1868,
        "de la ": 1869,
        "ent": 1870,
        "ement ": 1871,
        "com": 1872,
        "ac": 1873,
        "am": 1874,
        "po": 1875,
        "ag": 1876,
        "par": 1877,
        "au ": 1878,
        "ci": 1879,
        "ec": 1880,
        "ne ": 1881,
        "our ": 1882,
        "dans ": 1883,
        "tre ": 1884,
        "ain": 1885,
        "ont ": 1886,
        "par ": 1887,
        "et": 1888,
        ". L": 1889,
        "ét": 1890,
        "as": 1891,
        "our": 1892,
        "d ": 1893,
        "ée ": 1894,
        "19": 1895,
        "eur": 1896,
        "ap": 1897,
        "s, ": 1898,
        "qui ": 1899,
        "s de ": 1900,
        "ab": 1901,
        "pro": 1902,
        "pour ": 1903,
        "ouv": 1904,
        "il ": 1905,
        "vi": 1906,
        "ol": 1907,
        "tu": 1908,
        "ation ": 1909,
        "« ": 1910,
        "plu": 1911,
        "ait ": 1912,
        "ran": 1913,
        "son ": 1914,
        "ex": 1915,
        "es, ": 1916,
        "eur ": 1917,
        "pu": 1918,
        "ê": 1919,
        "pl": 1920,
        "ér": 1921,
        "tion ": 1922,
        "im": 1923,
        "cu": 1924,
        "ff": 1925,
        "onn": 1926,
        "ant": 1927,
        " de ": 1928,
        "ons ": 1929,
        "sur ": 1930,
        "aux ": 1931,
        " et ": 1932,
        "00": 1933,
        "e. ": 1934,
        "res ": 1935,
        "eux ": 1936,
        "ni": 1937,
        "n ": 1938,
        "st": 1939,
        "pré": 1940,
        "por": 1941,
        "és ": 1942,
        "éri": 1943,
        "plus ": 1944,
        "per": 1945,
        "l ": 1946,
        "ais ": 1947,
        "gu": 1948,
        "ec ": 1949,
        "op": 1950,
        "elle ": 1951,
        "sont ": 1952,
        "ot": 1953,
        "qu'": 1954,
        ": ": 1955,
        "ter": 1956,
        "y ": 1957,
        "de l'": 1958,
        "gr": 1959,
        "ès ": 1960,
        "avec ": 1961,
        "ère ": 1962,
        "eurs ": 1963,
        "ses ": 1964,
        "is ": 1965,
        "fi": 1966,
        "for": 1967,
        "ss": 1968,
        "cl": 1969,
        "oc": 1970,
        "end": 1971,
        "ées ": 1972,
        "tou": 1973,
        "mo": 1974,
        ".\nL": 1975,
        "à la ": 1976,
        "ver": 1977,
        "se": 1978,
        "de": 1979,
        "pi": 1980,
        "ist": 1981,
        "ques ": 1982,
        "us": 1983,
        "0 ": 1984,
        "ég": 1985,
        "ill": 1986,
        "e de ": 1987,
        "al ": 1988,
        "si ": 1989,
        "ro": 1990,
        "ces ": 1991,
        "ou ": 1992,
        "sa ": 1993,
        "in ": 1994,
        "s'": 1995,
        "res": 1996,
        "th": 1997,
        "ois ": 1998,
        "parti": 1999,
        "ad": 2000,
        ") ": 2001,
        "gn": 2002,
        "mon": 2003,
        "ur": 2004,
        "él": 2005,
        "o ": 2006,
        "aire ": 2007,
        "ette ": 2008,
        "nom": 2009,
        "comme ": 2010,
        "ie ": 2011,
        "ob": 2012,
        "ité ": 2013,
        "emb": 2014,
        "l’": 2015,
        "ation": 2016,
        "emi": 2017,
        "tes ": 2018,
        "ell": 2019,
        "sou": 2020,
        "én": 2021,
        "), ": 2022,
        "comm": 2023,
        "té ": 2024,
        ". Le ": 2025,
        "ser": 2026,
        "age ": 2027,
        "à l'": 2028,
        "18": 2029,
        "ann": 2030,
        "el ": 2031,
        "ement": 2032,
        "pas ": 2033,
        "gi": 2034,
        ". C": 2035,
        "Il ": 2036,
        "En ": 2037,
        "cor": 2038,
        "été ": 2039,
        "min": 2040,
        "bu": 2041,
        "tri": 2042,
        "peu": 2043,
        "premi": 2044,
        "an ": 2045,
        "deux ": 2046,
        "mais ": 2047,
        "cons": 2048,
        "port": 2049,
        "ale ": 2050,
        "dis": 2051,
        "ors ": 2052,
        "tres ": 2053,
        "mar": 2054,
        "te": 2055,
        "cri": 2056,
        "mê": 2057,
        "Ch": 2058,
        "bi": 2059,
        "ic": 2060,
        "ence ": 2061,
        "ce": 2062,
        ", le ": 2063,
        "â": 2064,
        "ç": 2065,
        "aut": 2066,
        "ém": 2067,
        "É": 2068,
        "fin": 2069,
        "» ": 2070,
        "co": 2071,
        "re, ": 2072,
        "ph": 2073,
        "n'": 2074,
        "it ": 2075,
        "ten": 2076,
        "20": 2077,
        "ail": 2078,
        "and": 2079,
        "ori": 2080,
        "ang": 2081,
        "ass": 2082,
        "200": 2083,
        "entre ": 2084,
        "um": 2085,
        "oup": 2086,
        ". Les ": 2087,
        "enn": 2088,
        "ev": 2089,
        "ille ": 2090,
        "ts ": 2091,
        "d’": 2092,
        ". La ": 2093,
        "alement ": 2094,
        "cour": 2095,
        "ess": 2096,
        "u ": 2097,
        "vo": 2098,
        "lis": 2099,
        "mes ": 2100,
        "br": 2101,
        "emp": 2102,
        "prés": 2103,
        "d'une ": 2104,
        "leur ": 2105,
        "pos": 2106,
        "ers ": 2107,
        "at ": 2108,
        "all": 2109,
        "ance ": 2110,
        "ca": 2111,
        "sion ": 2112,
        "près ": 2113,
        "oit ": 2114,
        "oir ": 2115,
        "ais": 2116,
        "enti": 2117,
        "d'un ": 2118,
        "iv": 2119,
        "eau ": 2120,
        "ois": 2121,
        "puis ": 2122,
        "dans le ": 2123,
        "ème ": 2124,
        "gran": 2125,
        "man": 2126,
        "der": 2127,
        "ment ": 2128,
        "c ": 2129,
        "Fran": 2130,
        "cette ": 2131,
        "f ": 2132,
        ". D": 2133,
        "ay": 2134,
        ". A": 2135,
        ". Il ": 2136,
        "ge ": 2137,
        "bl": 2138,
        "5 ": 2139,
        "fait ": 2140,
        "entr": 2141,
        "on, ": 2142,
        "aus": 2143,
        "; ": 2144,
        "ations ": 2145,
        "ace ": 2146,
        "col": 2147,
        "bli": 2148,
        "et de ": 2149,
        "même ": 2150,
        "ine ": 2151,
        "t, ": 2152,
        "e-": 2153,
        "alis": 2154,
        "ve ": 2155,
        "aient ": 2156,
        "1 ": 2157,
        "ens ": 2158,
        "Al": 2159,
        "cer": 2160,
        "en 19": 2161,
        "tin": 2162,
        "dans la ": 2163,
        "être ": 2164,
        "qui": 2165,
        "siè": 2166,
        "édi": 2167,
        "̂t ": 2168,
        "rel": 2169,
        "cul": 2170,
        "so": 2171,
        "», ": 2172,
        "che ": 2173,
        "II": 2174,
        "ing": 2175,
        "ven": 2176,
        "An": 2177,
        "int": 2178,
        "es de ": 2179,
        "mu": 2180,
        "vis": 2181,
        "t-": 2182,
        "os": 2183,
        "pers": 2184,
        "2 ": 2185,
        "oire ": 2186,
        "jour": 2187,
        "Par": 2188,
        "que, ": 2189,
        "car": 2190,
        "dont ": 2191,
        "fon": 2192,
        "eu ": 2193,
        "qu'il ": 2194,
        "mi": 2195,
        "Mar": 2196,
        "ren": 2197,
        "nouv": 2198,
        "sur": 2199,
        "tru": 2200,
        "ju": 2201,
        "mil": 2202,
        "sy": 2203,
        "ouver": 2204,
        "tions ": 2205,
        "201": 2206,
        "fu": 2207,
        "titu": 2208,
        "dans les ": 2209,
        "pe": 2210,
        "ard": 2211,
        "s et ": 2212,
        "elles ": 2213,
        "inter": 2214,
        "\n\n": 2215,
        "hi": 2216,
        "fr": 2217,
        "anc": 2218,
        "cip": 2219,
        "tique ": 2220,
        "jou": 2221,
        "ens": 2222,
        "dr": 2223,
        "lui ": 2224,
        "te de ": 2225,
        "iss": 2226,
        "ans": 2227,
        "rec": 2228,
        "pend": 2229,
        "publi": 2230,
        "eff": 2231,
        "tout ": 2232,
        "ins": 2233,
        "tain": 2234,
        "ord": 2235,
        "aussi ": 2236,
        "é, ": 2237,
        "conn": 2238,
        "ents ": 2239,
        "ru": 2240,
        "ra": 2241,
        "aires ": 2242,
        "ali": 2243,
        "3 ": 2244,
        "4 ": 2245,
        "er, ": 2246,
        "alors ": 2247,
        "diff": 2248,
        "ir": 2249,
        "déc": 2250,
        "des": 2251,
        "uni": 2252,
        "ils ": 2253,
        "é par ": 2254,
        "fran": 2255,
        "ins ": 2256,
        ", la ": 2257,
        "év": 2258,
        "temp": 2259,
        "où ": 2260,
        "aiss": 2261,
        "gne ": 2262,
        "e siè": 2263,
        "z ": 2264,
        "après ": 2265,
        "rem": 2266,
        "ise ": 2267,
        "ainsi ": 2268,
        "6 ": 2269,
        "trav": 2270,
        "autres ": 2271,
        "e.\n": 2272,
        "trouv": 2273,
        "leurs ": 2274,
        "péri": 2275,
        "lo": 2276,
        "tiv": 2277,
        "ction ": 2278,
        "sous ": 2279,
        "jus": 2280,
        "également ": 2281,
        "eux": 2282,
        "ach": 2283,
        "ite ": 2284,
        "t de ": 2285,
        ". En ": 2286,
        "re de ": 2287,
        "contr": 2288,
        "personn": 2289,
        "fois ": 2290,
        "a, ": 2291,
        "éd": 2292,
        "app": 2293,
        "gén": 2294,
        "ants ": 2295,
        "posi": 2296,
        "7 ": 2297,
        ".\nLe ": 2298,
        ". S": 2299,
        "no": 2300,
        "sans ": 2301,
        "hom": 2302,
        "mor": 2303,
        "le": 2304,
        ". L'": 2305,
        "aî": 2306,
        "aison ": 2307,
        "prin": 2308,
        "nation": 2309,
        "tant ": 2310,
        "ong": 2311,
        "et la ": 2312,
        "vers ": 2313,
        "œu": 2314,
        "présent": 2315,
        "k ": 2316,
        "èr": 2317,
        "Ar": 2318,
        "cré": 2319,
        "uti": 2320,
        "form": 2321,
        "seu": 2322,
        "pe ": 2323,
        "enne ": 2324,
        "ue ": 2325,
        "sur le ": 2326,
        "ères ": 2327,
        "derni": 2328,
        "pul": 2329,
        "comp": 2330,
        "not": 2331,
        "ect": 2332,
        "don": 2333,
        "sieurs ": 2334,
        "fin ": 2335,
        "était ": 2336,
        "ard ": 2337,
        "es et ": 2338,
        "arti": 2339,
        "essi": 2340,
        ". P": 2341,
        "hist": 2342,
        "eau": 2343,
        ", les ": 2344,
        "très ": 2345,
        "serv": 2346,
        "que le ": 2347,
        "rou": 2348,
        "ée par ": 2349,
        "'est ": 2350,
        "et le ": 2351,
        "8 ": 2352,
        "aff": 2353,
        "tan": 2354,
        "pon": 2355,
        "anci": 2356,
        "pay": 2357,
        "génér": 2358,
        "ture ": 2359,
        "and ": 2360,
        "olo": 2361,
        "La ": 2362,
        "..": 2363,
        "oy": 2364,
        "erre ": 2365,
        "fil": 2366,
        "m ": 2367,
        "ô": 2368,
        "id": 2369,
        "éch": 2370,
        "perm": 2371,
        "rap": 2372,
        "able ": 2373,
        "ir ": 2374,
        "cou": 2375,
        ".\nLa ": 2376,
        "pass": 2377,
        "er les ": 2378,
        "as ": 2379,
        "tour": 2380,
        ", il ": 2381,
        "att": 2382,
        "El": 2383,
        "que les ": 2384,
        "s-": 2385,
        "ain ": 2386,
        "produ": 2387,
        "gl": 2388,
        "sor": 2389,
        "sur la ": 2390,
        "contre ": 2391,
        "équi": 2392,
        "org": 2393,
        "le de ": 2394,
        "années ": 2395,
        "clu": 2396,
        "17": 2397,
        "mat": 2398,
        "utilis": 2399,
        "trois ": 2400,
        "quel": 2401,
        "Th": 2402,
        "cel": 2403,
        "import": 2404,
        "oi ": 2405,
        "tionn": 2406,
        "sp": 2407,
        "premier ": 2408,
        "tion": 2409,
        "certain": 2410,
        "nombr": 2411,
        "off": 2412,
        "poli": 2413,
        "première ": 2414,
        "atu": 2415,
        "ber": 2416,
        "Le ": 2417,
        "cin": 2418,
        "199": 2419,
        "ente ": 2420,
        "franç": 2421,
        "tra": 2422,
        "ville ": 2423,
        "cr": 2424,
        "che": 2425,
        "end ": 2426,
        "depuis ": 2427,
        "voi": 2428,
        "rom": 2429,
        "dou": 2430,
        "ante ": 2431,
        "000 ": 2432,
        "ma": 2433,
        "cat": 2434,
        "gue ": 2435,
        "que la ": 2436,
        "peut ": 2437,
        "est": 2438,
        "ul": 2439,
        "9 ": 2440,
        "bien ": 2441,
        "et les ": 2442,
        "écri": 2443,
        "ages ": 2444,
        "ari": 2445,
        "plac": 2446,
        "is, ": 2447,
        "pour la ": 2448,
        "avant ": 2449,
        "commun": 2450,
        "né": 2451,
        "er la ": 2452,
        "œuv": 2453,
        "fac": 2454,
        "embre ": 2455,
        "popul": 2456,
        "soci": 2457,
        "jeu": 2458,
        "vient ": 2459,
        "abl": 2460,
        "er le ": 2461,
        "amment ": 2462,
        "elon ": 2463,
        "Sain": 2464,
        "to": 2465,
        "appar": 2466,
        "plusieurs ": 2467,
        "dans l'": 2468,
        "qua": 2469,
        "Ét": 2470,
        "enc": 2471,
        "ième ": 2472,
        "In": 2473,
        "lor": 2474,
        "encor": 2475,
        "ord ": 2476,
        "ements ": 2477,
        "anis": 2478,
        "grap": 2479,
        "anti": 2480,
        "us ": 2481,
        "e, le ": 2482,
        "vel": 2483,
        "ique ": 2484,
        "constru": 2485,
        "débu": 2486,
        "arg": 2487,
        "hab": 2488,
        "fai": 2489,
        "é de ": 2490,
        "aill": 2491,
        "situ": 2492,
        "étr": 2493,
        "sid": 2494,
        "group": 2495,
        "esse ": 2496,
        "princip": 2497,
        "et, ": 2498,
        "avoir ": 2499,
        "suiv": 2500,
        "h ": 2501,
        "vent ": 2502,
        "ar ": 2503,
        "tent ": 2504,
        ".\nLes ": 2505,
        "ation de ": 2506,
        "cle ": 2507,
        "e. C": 2508,
        "aine ": 2509,
        "sé": 2510,
        "e siècl": 2511,
        "trans": 2512,
        "En": 2513,
        "bre ": 2514,
        "— ": 2515,
        "chi": 2516,
        "par le ": 2517,
        "hu": 2518,
        "ion ": 2519,
        "pendant ": 2520,
        ": « ": 2521,
        "aur": 2522,
        "ici": 2523,
        "ques": 2524,
        "Jo": 2525,
        "pli": 2526,
        "régi": 2527,
        "cep": 2528,
        "esti": 2529,
        "vir": 2530,
        "dom": 2531,
        "a été ": 2532,
        "fl": 2533,
        "ment": 2534,
        ") et ": 2535,
        ".\n\n": 2536,
        "ich": 2537,
        "place ": 2538,
        "par la ": 2539,
        "ités ": 2540,
        "ous ": 2541,
        "partie ": 2542,
        "iste ": 2543,
        "arri": 2544,
        "ales ": 2545,
        "ili": 2546,
        "ble ": 2547,
        "pour": 2548,
        ", et ": 2549,
        "alité ": 2550,
        "me": 2551,
        "sur les ": 2552,
        "00 ": 2553,
        ", qui ": 2554,
        "coup": 2555,
        "jusqu'": 2556,
        "cham": 2557,
        "tement ": 2558,
        "avi": 2559,
        "men": 2560,
        "part ": 2561,
        "ce qui ": 2562,
        "Je": 2563,
        "avait ": 2564,
        "can": 2565,
        "notamment ": 2566,
        "eaux ": 2567,
        ".\nA": 2568,
        "sc": 2569,
        "Qu": 2570,
        "cher": 2571,
        "te, ": 2572,
        "bat": 2573,
        "Con": 2574,
        "Gu": 2575,
        " (": 2576,
        "os ": 2577,
        "aux": 2578,
        "réalis": 2579,
        "Su": 2580,
        "par les ": 2581,
        "peti": 2582,
        "s de l'": 2583,
        ".\nD": 2584,
        "od": 2585,
        "ret": 2586,
        "autre ": 2587,
        "soit ": 2588,
        "é à ": 2589,
        "éli": 2590,
        "me, ": 2591,
        "n'est ": 2592,
        "dev": 2593,
        "Elle ": 2594,
        "lors ": 2595,
        "tion de ": 2596,
        "Mon": 2597,
        ", l'": 2598,
        "oci": 2599,
        "onne ": 2600,
        "empl": 2601,
        "pè": 2602,
        "coll": 2603,
        "encore ": 2604,
        "int ": 2605,
        "vol": 2606,
        "celu": 2607,
        "oli": 2608,
        "és": 2609,
        "différ": 2610,
        "ai ": 2611,
        "air": 2612,
        "pouv": 2613,
        "gar": 2614,
        "d'A": 2615,
        "faire ": 2616,
        "ter ": 2617,
        "chev": 2618,
        "que de ": 2619,
        "pour les ": 2620,
        "moins ": 2621,
        "ée, ": 2622,
        "ène ": 2623,
        "dem": 2624,
        "endre ": 2625,
        "velop": 2626,
        "198": 2627,
        "étu": 2628,
        "culi": 2629,
        "bri": 2630,
        "inf": 2631,
        "pose ": 2632,
        "arm": 2633,
        "épo": 2634,
        "indi": 2635,
        "iti": 2636,
        "% ": 2637,
        "dévelop": 2638,
        "y, ": 2639,
        "habit": 2640,
        "ellement ": 2641,
        "sep": 2642,
        "éti": 2643,
        "Saint-": 2644,
        "suite ": 2645,
        "pri": 2646,
        "volu": 2647,
        "secon": 2648,
        "az": 2649,
        "jours ": 2650,
        "donn": 2651,
        "vill": 2652,
        "France ": 2653,
        "peu ": 2654,
        "de de ": 2655,
        "trai": 2656,
        "représent": 2657,
        "oul": 2658,
        "particuli": 2659,
        "ct": 2660,
        "16": 2661,
        "197": 2662,
        "orig": 2663,
        "embl": 2664,
        "fs ": 2665,
        "tous ": 2666,
        "fic": 2667,
        "prend ": 2668,
        "long": 2669,
        "act": 2670,
        "agn": 2671,
        "194": 2672,
        "ig": 2673,
        "ant la ": 2674,
        "mal": 2675,
        "forme ": 2676,
        "oni": 2677,
        "es. ": 2678,
        ".\nEn ": 2679,
        "euses ": 2680,
        "pris": 2681,
        "souv": 2682,
        "oph": 2683,
        "er de ": 2684,
        "du X": 2685,
        "15": 2686,
        "emble ": 2687,
        "ds ": 2688,
        "omb": 2689,
        "inst": 2690,
        "ée de ": 2691,
        "liv": 2692,
        "constitu": 2693,
        "fut ": 2694,
        "arch": 2695,
        "la": 2696,
        "porte ": 2697,
        "musi": 2698,
        "que": 2699,
        "aque ": 2700,
        "temps ": 2701,
        "0, ": 2702,
        "et des ": 2703,
        "ép": 2704,
        "sol": 2705,
        "Gran": 2706,
        "donc ": 2707,
        "hum": 2708,
        "ci ": 2709,
        "lan": 2710,
        "cap": 2711,
        "ne": 2712,
        "reli": 2713,
        "grande ": 2714,
        "e, la ": 2715,
        "é en ": 2716,
        "suc": 2717,
        "do": 2718,
        "que l'": 2719,
        "cit": 2720,
        "développ": 2721,
        "qu’": 2722,
        "ign": 2723,
        "milli": 2724,
        "trouve ": 2725,
        "succ": 2726,
        "pour le ": 2727,
        "pol": 2728,
        "enf": 2729,
        "dur": 2730,
        "acc": 2731,
        "of ": 2732,
        "fem": 2733,
        "tiques ": 2734,
        "Une ": 2735,
        "tur": 2736,
        "ques, ": 2737,
        "p. ": 2738,
        "fam": 2739,
        "cours ": 2740,
        "élec": 2741,
        "bas": 2742,
        "vie ": 2743,
        "Com": 2744,
        "dat": 2745,
        "celle ": 2746,
        "Les ": 2747,
        "ation des ": 2748,
        "quatre ": 2749,
        "cô": 2750,
        "vers": 2751,
        "ains ": 2752,
        "ant, ": 2753,
        "196": 2754,
        "N ": 2755,
        "direc": 2756,
        "els ": 2757,
        "Char": 2758,
        "envir": 2759,
        "mani": 2760,
        "éric": 2761,
        "sul": 2762,
        "anim": 2763,
        "roy": 2764,
        "oir": 2765,
        "ak": 2766,
        "voy": 2767,
        "ew": 2768,
        "zon": 2769,
        "médi": 2770,
        "ennent ": 2771,
        "ant le ": 2772,
        "Uni": 2773,
        "ologi": 2774,
        "préc": 2775,
        "non ": 2776,
        "partir ": 2777,
        "e. Il ": 2778,
        "nes ": 2779,
        "or ": 2780,
        "pres": 2781,
        "position ": 2782,
        "Au": 2783,
        "St": 2784,
        "Un ": 2785,
        "str": 2786
    },
    "int_to_string": {
        "0": " ",
        "1": "e",
        "2": "a",
        "3": "s",
        "4": "n",
        "5": "i",
        "6": "t",
        "7": "r",
        "8": "u",
        "9": "l",
        "10": "o",
        "11": "d",
        "12": "c",
        "13": "p",
        "14": "m",
        "15": "́",
        "16": ",",
        "17": "v",
        "18": "g",
        "19": "f",
        "20": "'",
        "21": "̀",
        "22": "h",
        "23": "q",
        "24": ".",
        "25": "b",
        "26": "x",
        "27": "1",
        "28": "L",
        "29": "y",
        "30": "\n",
        "31": "0",
        "32": "-",
        "33": "̂",
        "34": "C",
        "35": "A",
        "36": "9",
        "37": "j",
        "38": "S",
        "39": "2",
        "40": "P",
        "41": "I",
        "42": "E",
        "43": "M",
        "44": "(",
        "45": ")",
        "46": "B",
        "47": "D",
        "48": "8",
        "49": "’",
        "50": "k",
        "51": "«",
        "52": "»",
        "53": "5",
        "54": "3",
        "55": "7",
        "56": "T",
        "57": "R",
        "58": "F",
        "59": "4",
        "60": "6",
        "61": "G",
        "62": "z",
        "63": ":",
        "64": "N",
        "65": "J",
        "66": "H",
        "67": "V",
        "68": "O",
        "69": "w",
        "70": "̧",
        "71": "U",
        "72": "X",
        "73": "W",
        "74": "K",
        "75": ";",
        "76": "̈",
        "77": "œ",
        "78": "%",
        "79": "—",
        "80": "]",
        "81": "[",
        "82": "Q",
        "83": "Y",
        "84": "Z",
        "85": "/",
        "86": "̄",
        "87": "–",
        "88": "!",
        "89": "?",
        "90": "{",
        "91": "}",
        "92": "\"",
        "93": "+",
        "94": "\\",
        "95": "°",
        "96": "̌",
        "97": "‎",
        "98": "•",
        "99": "€",
        "100": "=",
        "101": "æ",
        "102": "ο",
        "103": "α",
        "104": "_",
        "105": "ι",
        "106": "̊",
        "107": "̃",
        "108": "×",
        "109": "Œ",
        "110": "ε",
        "111": "−",
        "112": "$",
        "113": "ν",
        "114": "&",
        "115": "ʼ",
        "116": "τ",
        "117": "ς",
        "118": "̣",
        "119": "μ",
        "120": "ρ",
        "121": "υ",
        "122": "η",
        "123": "λ",
        "124": "̓",
        "125": "π",
        "126": "′",
        "127": "κ",
        "128": "*",
        "129": "σ",
        "130": "ʻ",
        "131": "^",
        "132": "£",
        "133": "̇",
        "134": "ł",
        "135": "ˈ",
        "136": "̆",
        "137": "ω",
        "138": "ا",
        "139": "Đ",
        "140": "→",
        "141": "θ",
        "142": "δ",
        "143": "ɪ",
        "144": "ø",
        "145": "‰",
        "146": "“",
        "147": "γ",
        "148": "ð",
        "149": "”",
        "150": "а",
        "151": "ə",
        "152": "о",
        "153": "ː",
        "154": "͂",
        "155": "‐",
        "156": "|",
        "157": "и",
        "158": "§",
        "159": "#",
        "160": "ß",
        "161": "ħ",
        "162": "ɛ",
        "163": "⁡",
        "164": "е",
        "165": "̛",
        "166": "~",
        "167": "Þ",
        "168": "φ",
        "169": "ʊ",
        "170": "̯",
        "171": "±",
        "172": "⁄",
        "173": "ɔ",
        "174": "゙",
        "175": "ل",
        "176": "р",
        "177": "̔",
        "178": "ن",
        "179": "ı",
        "180": "к",
        "181": "̦",
        "182": "β",
        "183": "Ε",
        "184": "н",
        "185": "Α",
        "186": "χ",
        "187": "†",
        "188": "̉",
        "189": "‘",
        "190": "ي",
        "191": "ر",
        "192": "ʁ",
        "193": "с",
        "194": "Σ",
        "195": "Ł",
        "196": "ɑ",
        "197": "Æ",
        "198": "л",
        "199": "Δ",
        "200": "т",
        "201": "م",
        "202": "̨",
        "203": "و",
        "204": "@",
        "205": "♭",
        "206": "ب",
        "207": "Π",
        "208": "ʃ",
        "209": "س",
        "210": "ー",
        "211": "þ",
        "212": "ت",
        "213": "в",
        "214": "゚",
        "215": "д",
        "216": "の",
        "217": "ʒ",
        "218": "у",
        "219": "ζ",
        "220": "đ",
        "221": "Η",
        "222": "ʾ",
        "223": "■",
        "224": "п",
        "225": "ی",
        "226": "ン",
        "227": "`",
        "228": "Ι",
        "229": "د",
        "230": "י",
        "231": "ト",
        "232": "Κ",
        "233": "Ο",
        "234": "ʔ",
        "235": "ه",
        "236": "∑",
        "237": "ξ",
        "238": "Ω",
        "239": "ɯ",
        "240": "ع",
        "241": "♯",
        "242": "ス",
        "243": "·",
        "244": "͡",
        "245": "̸",
        "246": "ा",
        "247": "м",
        "248": "Ħ",
        "249": "Φ",
        "250": "≈",
        "251": "タ",
        "252": "ة",
        "253": "ク",
        "254": "Μ",
        "255": "ج",
        "256": "Ν",
        "257": "ʿ",
        "258": "ŋ",
        "259": "Λ",
        "260": "̋",
        "261": "Τ",
        "262": "Θ",
        "263": "シ",
        "264": "ـ",
        "265": "ق",
        "266": "ו",
        "267": "Β",
        "268": "ف",
        "269": "ほ",
        "270": "Ρ",
        "271": "フ",
        "272": "山",
        "273": "↔",
        "274": "‹",
        "275": "›",
        "276": "Ø",
        "277": "्",
        "278": "Γ",
        "279": "ش",
        "280": "ح",
        "281": "ル",
        "282": "ك",
        "283": "本",
        "284": "ɾ",
        "285": "ר",
        "286": "日",
        "287": "С",
        "288": "त",
        "289": "ɒ",
        "290": "א",
        "291": "∈",
        "292": "ͅ",
        "293": "म",
        "294": "カ",
        "295": "リ",
        "296": "道",
        "297": "イ",
        "298": "ь",
        "299": "ա",
        "300": "𐌰",
        "301": "̮",
        "302": "ッ",
        "303": "ط",
        "304": "コ",
        "305": "ы",
        "306": "人",
        "307": "б",
        "308": "\t",
        "309": "ɤ",
        "310": "ɹ",
        "311": "≤",
        "312": "ɡ",
        "313": "ה",
        "314": "Υ",
        "315": "г",
        "316": "大",
        "317": "ј",
        "318": "ш",
        "319": "―",
        "320": "ˌ",
        "321": "ウ",
        "322": "з",
        "323": "∞",
        "324": "中",
        "325": "ל",
        "326": "ʌ",
        "327": "・",
        "328": "נ",
        "329": "ん",
        "330": "‿",
        "331": "َ",
        "332": "ٔ",
        "333": "̱",
        "334": "三",
        "335": "ز",
        "336": "ラ",
        "337": "マ",
        "338": "神",
        "339": "П",
        "340": "خ",
        "341": "⋅",
        "342": "ד",
        "343": "キ",
        "344": "ヒ",
        "345": "ア",
        "346": "К",
        "347": "た",
        "348": "国",
        "349": "⊙",
        "350": "ב",
        "351": "∗",
        "352": "ש",
        "353": "ʹ",
        "354": "ם",
        "355": "ص",
        "356": "х",
        "357": "ч",
        "358": "説",
        "359": "स",
        "360": "ȝ",
        "361": "文",
        "362": "ホ",
        "363": "Χ",
        "364": "セ",
        "365": "ム",
        "366": "र",
        "367": "∴",
        "368": "ʂ",
        "369": "Ð",
        "370": "技",
        "371": "書",
        "372": "ת",
        "373": "Р",
        "374": "身",
        "375": "子",
        "376": "伝",
        "377": "ψ",
        "378": "画",
        "379": "東",
        "380": "天",
        "381": "ɐ",
        "382": "ि",
        "383": "ɬ",
        "384": "ى",
        "385": "√",
        "386": "王",
        "387": "ュ",
        "388": "ハ",
        "389": "平",
        "390": "し",
        "391": "ח",
        "392": "⟩",
        "393": "Б",
        "394": "А",
        "395": "ロ",
        "396": "̥",
        "397": "ヤ",
        "398": "ک",
        "399": "я",
        "400": "ャ",
        "401": "מ",
        "402": "二",
        "403": "भ",
        "404": "न",
        "405": "व",
        "406": "ʉ",
        "407": "ն",
        "408": "∫",
        "409": "ָ",
        "410": "ס",
        "411": "Ϝ",
        "412": "ּ",
        "413": "字",
        "414": "名",
        "415": "书",
        "416": "ニ",
        "417": "家",
        "418": "女",
        "419": "ナ",
        "420": "ր",
        "421": "ц",
        "422": "њ",
        "423": "─",
        "424": "Г",
        "425": "अ",
        "426": "和",
        "427": "𐍄",
        "428": "ե",
        "429": "𐍃",
        "430": "♮",
        "431": "ϝ",
        "432": "て",
        "433": "レ",
        "434": "テ",
        "435": "ィ",
        "436": "ᅡ",
        "437": "会",
        "438": "法",
        "439": "民",
        "440": "ِ",
        "441": "द",
        "442": "金",
        "443": "ן",
        "444": "И",
        "445": "漢",
        "446": "み",
        "447": "き",
        "448": "ァ",
        "449": "ذ",
        "450": "∨",
        "451": "Ψ",
        "452": "高",
        "453": "メ",
        "454": "オ",
        "455": "ᆼ",
        "456": "ո",
        "457": "原",
        "458": "合",
        "459": "い",
        "460": "ф",
        "461": "我",
        "462": "一",
        "463": "星",
        "464": "寺",
        "465": "ɣ",
        "466": "ǝ",
        "467": "˥",
        "468": "ォ",
        "469": "没",
        "470": "𐌹",
        "471": "半",
        "472": "ɜ",
        "473": "新",
        "474": "重",
        "475": "る",
        "476": "モ",
        "477": "∇",
        "478": "太",
        "479": "Л",
        "480": "草",
        "481": "ᄋ",
        "482": "千",
        "483": "江",
        "484": "戸",
        "485": "М",
        "486": "ू",
        "487": "प",
        "488": "源",
        "489": "̪",
        "490": "ُ",
        "491": "西",
        "492": "غ",
        "493": "立",
        "494": "ㄧ",
        "495": "∀",
        "496": "‖",
        "497": "ϛ",
        "498": "か",
        "499": "サ",
        "500": "Е",
        "501": "„",
        "502": "は",
        "503": "ノ",
        "504": "Ζ",
        "505": "之",
        "506": "⇔",
        "507": "部",
        "508": "つ",
        "509": "Ϙ",
        "510": "≃",
        "511": "Д",
        "512": "安",
        "513": "時",
        "514": "ა",
        "515": "љ",
        "516": "ɲ",
        "517": "Т",
        "518": "海",
        "519": "荒",
        "520": "皇",
        "521": "ّ",
        "522": "空",
        "523": "華",
        "524": "ʀ",
        "525": "ら",
        "526": "豆",
        "527": "̩",
        "528": "̞",
        "529": "唐",
        "530": "տ",
        "531": "𐌽",
        "532": "県",
        "533": "漫",
        "534": "Հ",
        "535": "մ",
        "536": "ٓ",
        "537": "型",
        "538": "ʏ",
        "539": "ע",
        "540": "代",
        "541": "仮",
        "542": "音",
        "543": "ケ",
        "544": "青",
        "545": "پ",
        "546": "と",
        "547": "絵",
        "548": "吉",
        "549": "年",
        "550": "ი",
        "551": "土",
        "552": "ミ",
        "553": "特",
        "554": "ϩ",
        "555": "生",
        "556": "体",
        "557": "ْ",
        "558": "ं",
        "559": "國",
        "560": "石",
        "561": "¬",
        "562": "宝",
        "563": "ო",
        "564": "墳",
        "565": "楽",
        "566": "座",
        "567": "گ",
        "568": "≥",
        "569": "周",
        "570": "鬼",
        "571": "十",
        "572": "ふ",
        "573": "り",
        "574": "な",
        "575": "ק",
        "576": "В",
        "577": "ض",
        "578": "数",
        "579": "独",
        "580": "に",
        "581": "真",
        "582": "月",
        "583": "朝",
        "584": "学",
        "585": "ᄌ",
        "586": "老",
        "587": "አ",
        "588": "ᆫ",
        "589": "О",
        "590": "ւ",
        "591": "長",
        "592": "ג",
        "593": "福",
        "594": "®",
        "595": "小",
        "596": "政",
        "597": "光",
        "598": "ʓ",
        "599": "男",
        "600": "ह",
        "601": "野",
        "602": "鉄",
        "603": "夫",
        "604": "华",
        "605": "˧",
        "606": "¢",
        "607": "不",
        "608": "ग",
        "609": "̻",
        "610": "っ",
        "611": "𐍉",
        "612": "玄",
        "613": "奘",
        "614": "藏",
        "615": "Ե",
        "616": "ի",
        "617": "え",
        "618": "ʤ",
        "619": "כ",
        "620": "ϙ",
        "621": "古",
        "622": "事",
        "623": "五",
        "624": "語",
        "625": "ث",
        "626": "洛",
        "627": "治",
        "628": "⟨",
        "629": "ᅮ",
        "630": "教",
        "631": "德",
        "632": "義",
        "633": "ስ",
        "634": "碁",
        "635": "棋",
        "636": "軍",
        "637": "水",
        "638": "世",
        "639": "行",
        "640": "ე",
        "641": "堂",
        "642": "戦",
        "643": "院",
        "644": "木",
        "645": "島",
        "646": "ひ",
        "647": "お",
        "648": "क",
        "649": "ु",
        "650": "ʐ",
        "651": "ध",
        "652": "ம",
        "653": "ष",
        "654": "ʕ",
        "655": "有",
        "656": "尋",
        "657": "ツ",
        "658": "式",
        "659": "¡",
        "660": "尔",
        "661": "რ",
        "662": "便",
        "663": "Ա",
        "664": "ս",
        "665": "յ",
        "666": "𐌸",
        "667": "孫",
        "668": "悟",
        "669": "流",
        "670": "風",
        "671": "ㄨ",
        "672": "ʅ",
        "673": "気",
        "674": "武",
        "675": "ְ",
        "676": "פ",
        "677": "記",
        "678": "集",
        "679": "見",
        "680": "食",
        "681": "ظ",
        "682": "ʧ",
        "683": "限",
        "684": "⌈",
        "685": "⌉",
        "686": "ⴲ",
        "687": "宋",
        "688": "北",
        "689": "南",
        "690": "李",
        "691": "魔",
        "692": "首",
        "693": "慎",
        "694": "解",
        "695": "阝",
        "696": "羊",
        "697": "心",
        "698": "ж",
        "699": "ን",
        "700": "ሳ",
        "701": "ር",
        "702": "ባ",
        "703": "活",
        "704": "動",
        "705": "ɦ",
        "706": "発",
        "707": "围",
        "708": "阳",
        "709": "白",
        "710": "ᄉ",
        "711": "ᅵ",
        "712": "ղ",
        "713": "浮",
        "714": "藤",
        "715": "富",
        "716": "歌",
        "717": "物",
        "718": "化",
        "719": "ソ",
        "720": "京",
        "721": "მ",
        "722": "џ",
        "723": "Ч",
        "724": "ワ",
        "725": "們",
        "726": "们",
        "727": "ል",
        "728": "内",
        "729": "速",
        "730": "路",
        "731": "്",
        "732": "ᄃ",
        "733": "ॐ",
        "734": "Ц",
        "735": "ヘ",
        "736": "後",
        "737": "倉",
        "738": "宗",
        "739": "冒",
        "740": "険",
        "741": "社",
        "742": "湖",
        "743": "宮",
        "744": "ʎ",
        "745": "骨",
        "746": "े",
        "747": "ቴ",
        "748": "ይ",
        "749": "川",
        "750": "்",
        "751": "य",
        "752": "⟶",
        "753": "今",
        "754": "洋",
        "755": "下",
        "756": "共",
        "757": "那",
        "758": "⋯",
        "759": "ɥ",
        "760": "ˉ",
        "761": "ʟ",
        "762": "आ",
        "763": "ः",
        "764": "間",
        "765": "花",
        "766": "ǃ",
        "767": "蒙",
        "768": "利",
        "769": "∂",
        "770": "篆",
        "771": "楷",
        "772": "ா",
        "773": "ә",
        "774": "劫",
        "775": "𐌿",
        "776": "𐍈",
        "777": "𐌴",
        "778": "𐍅",
        "779": "八",
        "780": "角",
        "781": "方",
        "782": "岡",
        "783": "倶",
        "784": "毘",
        "785": "盧",
        "786": "士",
        "787": "器",
        "788": "剛",
        "789": "ㄥ",
        "790": "ɿ",
        "791": "模",
        "792": "趣",
        "793": "味",
        "794": "蒿",
        "795": "經",
        "796": "ֵ",
        "797": "ϡ",
        "798": "ء",
        "799": "仁",
        "800": "万",
        "801": "読",
        "802": "聞",
        "803": "産",
        "804": "経",
        "805": "ま",
        "806": "す",
        "807": "赤",
        "808": "左",
        "809": "↑",
        "810": "צ",
        "811": "チ",
        "812": "⊕",
        "813": "⊖",
        "814": "♁",
        "815": "≡",
        "816": "康",
        "817": "ᄒ",
        "818": "Ξ",
        "819": "無",
        "820": "羲",
        "821": "け",
        "822": "ં",
        "823": "ዮ",
        "824": "ራ",
        "825": "ካ",
        "826": "መ",
        "827": "◻",
        "828": "写",
        "829": "囲",
        "830": "提",
        "831": "総",
        "832": "ョ",
        "833": "椿",
        "834": "剣",
        "835": "ᅭ",
        "836": "ᄀ",
        "837": "ᅥ",
        "838": "こ",
        "839": "版",
        "840": "色",
        "841": "春",
        "842": "者",
        "843": "百",
        "844": "明",
        "845": "開",
        "846": "を",
        "847": "ნ",
        "848": "買",
        "849": "买",
        "850": "你",
        "851": "他",
        "852": "እ",
        "853": "ז",
        "854": "♄",
        "855": "¥",
        "856": "漠",
        "857": "З",
        "858": "頼",
        "859": "河",
        "860": "臣",
        "861": "盛",
        "862": "徳",
        "863": "衡",
        "864": "将",
        "865": "州",
        "866": "峰",
        "867": "Ϡ",
        "868": "髪",
        "869": "機",
        "870": "ዳ",
        "871": "ማ",
        "872": "ያ",
        "873": "ው",
        "874": "史",
        "875": "幸",
        "876": "登",
        "877": "城",
        "878": "戒",
        "879": "正",
        "880": "ल",
        "881": "ٌ",
        "882": "ு",
        "883": "ச",
        "884": "表",
        "885": "保",
        "886": "良",
        "887": "田",
        "888": "ネ",
        "889": "系",
        "890": "˩",
        "891": "族",
        "892": "議",
        "893": "所",
        "894": "地",
        "895": "区",
        "896": "号",
        "897": "і",
        "898": "々",
        "899": "ⵖ",
        "900": "ⵄ",
        "901": "ⴳ",
        "902": "∩",
        "903": "͆",
        "904": "э",
        "905": "Ɛ",
        "906": "ろ",
        "907": "ी",
        "908": "菩",
        "909": "薩",
        "910": "ს",
        "911": "ხ",
        "912": "甲",
        "913": "劉",
        "914": "ٕ",
        "915": "ன",
        "916": "շ",
        "917": "ƕ",
        "918": "七",
        "919": "侍",
        "920": "少",
        "921": "く",
        "922": "素",
        "923": "陳",
        "924": "君",
        "925": "洪",
        "926": "手",
        "927": "姫",
        "928": "浄",
        "929": "१",
        "930": "८",
        "931": "५",
        "932": "७",
        "933": "ख",
        "934": "ड",
        "935": "լ",
        "936": "©",
        "937": "ㄣ",
        "938": "ㄩ",
        "939": "柔",
        "940": "章",
        "941": "算",
        "942": "ִ",
        "943": "ล",
        "944": "า",
        "945": "Ϛ",
        "946": "帝",
        "947": "吸",
        "948": "血",
        "949": "葉",
        "950": "丁",
        "951": "右",
        "952": "←",
        "953": "振",
        "954": "、",
        "955": "「",
        "956": "」",
        "957": "₤",
        "958": "緑",
        "959": "杨",
        "960": "辉",
        "961": "楊",
        "962": "輝",
        "963": "鍜",
        "964": "起",
        "965": "刊",
        "966": "Х",
        "967": "靖",
        "968": "ᆨ",
        "969": "爲",
        "970": "仙",
        "971": "难",
        "972": "功",
        "973": "好",
        "974": "媽",
        "975": "馬",
        "976": "后",
        "977": "許",
        "978": "许",
        "979": "典",
        "980": "竹",
        "981": "邑",
        "982": "阜",
        "983": "戈",
        "984": "ગ",
        "985": "ો",
        "986": "ተ",
        "987": "ኛ",
        "988": "በ",
        "989": "ዝ",
        "990": "ብ",
        "991": "ھ",
        "992": "ٹ",
        "993": "ʈ",
        "994": "Н",
        "995": "陽",
        "996": "論",
        "997": "发",
        "998": "论",
        "999": "裏",
        "1000": "供",
        "1001": "司",
        "1002": "令",
        "1003": "ϟ",
        "1004": "皮",
        "1005": "聖",
        "1006": "ᅦ",
        "1007": "ᅩ",
        "1008": "‌",
        "1009": "Ն",
        "1010": "Ջ",
        "1011": "点",
        "1012": "彩",
        "1013": "著",
        "1014": "訳",
        "1015": "同",
        "1016": "朋",
        "1017": "舎",
        "1018": "出",
        "1019": "鏡",
        "1020": "楼",
        "1021": "景",
        "1022": "暦",
        "1023": "虫",
        "1024": "鳥",
        "1025": "街",
        "1026": "氏",
        "1027": "英",
        "1028": "雄",
        "1029": "猫",
        "1030": "ბ",
        "1031": "秋",
        "1032": "エ",
        "1033": "У",
        "1034": "些",
        "1035": "∼",
        "1036": "尾",
        "1037": "都",
        "1038": "ኤ",
        "1039": "മ",
        "1040": "ന",
        "1041": "ാ",
        "1042": "റ",
        "1043": "乐",
        "1044": "ᅧ",
        "1045": "ᆷ",
        "1046": "ᄇ",
        "1047": "Ф",
        "1048": "恩",
        "1049": "来",
        "1050": "科",
        "1051": "̅",
        "1052": "貓",
        "1053": "Ш",
        "1054": "ᵻ",
        "1055": "↗",
        "1056": "↘",
        "1057": "餐",
        "1058": "永",
        "1059": "井",
        "1060": "鎌",
        "1061": "僧",
        "1062": "興",
        "1063": "屋",
        "1064": "府",
        "1065": "貌",
        "1066": "銀",
        "1067": "ᵹ",
        "1068": "ግ",
        "1069": "ዊ",
        "1070": "ም",
        "1071": "ኘ",
        "1072": "ю",
        "1073": "衆",
        "1074": "禅",
        "1075": "祠",
        "1076": "拝",
        "1077": "祭",
        "1078": "仏",
        "1079": "僵",
        "1080": "屍",
        "1081": "ˁ",
        "1082": "回",
        "1083": "炮",
        "1084": "雲",
        "1085": "เ",
        "1086": "ጌ",
        "1087": "ጣ",
        "1088": "ቱ",
        "1089": "ሃ",
        "1090": "ኢ",
        "1091": "ት",
        "1092": "ጵ",
        "1093": "મ",
        "1094": "દ",
        "1095": "ા",
        "1096": "ौ",
        "1097": "広",
        "1098": "ዎ",
        "1099": "ድ",
        "1100": "ሮ",
        "1101": "இ",
        "1102": "ो",
        "1103": "護",
        "1104": "黒",
        "1105": "泉",
        "1106": "奈",
        "1107": "御",
        "1108": "誕",
        "1109": "理",
        "1110": "ֹ",
        "1111": "支",
        "1112": "省",
        "1113": "直",
        "1114": "汉",
        "1115": "元",
        "1116": "经",
        "1117": "ত",
        "1118": "য",
        "1119": "★",
        "1120": "Я",
        "1121": "̠",
        "1122": "盤",
        "1123": "ɫ",
        "1124": "ɰ",
        "1125": "ɸ",
        "1126": "ט",
        "1127": "⇒",
        "1128": "♃",
        "1129": "荻",
        "1130": "財",
        "1131": "ɝ",
        "1132": "亚",
        "1133": "庇",
        "1134": "株",
        "1135": "श",
        "1136": "臓",
        "1137": "ɚ",
        "1138": "埵",
        "1139": "ტ",
        "1140": "戰",
        "1141": "殷",
        "1142": "松",
        "1143": "秦",
        "1144": "始",
        "1145": "獻",
        "1146": "晉",
        "1147": "ⴰ",
        "1148": "ⵢ",
        "1149": "荷",
        "1150": "兰",
        "1151": "苗",
        "1152": "ப",
        "1153": "ி",
        "1154": "ர",
        "1155": "ҳ",
        "1156": "↦",
        "1157": "ܢ",
        "1158": "乙",
        "1159": "丑",
        "1160": "さ",
        "1161": "勝",
        "1162": "段",
        "1163": "四",
        "1164": "𐌻",
        "1165": "𐌺",
        "1166": "𐌷",
        "1167": "𐌳",
        "1168": "円",
        "1169": "前",
        "1170": "応",
        "1171": "蘇",
        "1172": "熊",
        "1173": "塚",
        "1174": "玉",
        "1175": "多",
        "1176": "郎",
        "1177": "友",
        "1178": "婦",
        "1179": "協",
        "1180": "游",
        "1181": "记",
        "1182": "陈",
        "1183": "釋",
        "1184": "迦",
        "1185": "牟",
        "1186": "尼",
        "1187": "龍",
        "1188": "豬",
        "1189": "沙",
        "1190": "尚",
        "1191": "嬌",
        "1192": "師",
        "1193": "帽",
        "1194": "遮",
        "1195": "蟬",
        "1196": "̭",
        "1197": "現",
        "1198": "谷",
        "1199": "形",
        "1200": "瑠",
        "1201": "璃",
        "1202": "ⵉ",
        "1203": "ⵏ",
        "1204": "洗",
        "1205": "‡",
        "1206": "ք",
        "1207": "Թ",
        "1208": "պ",
        "1209": "Պ",
        "1210": "う",
        "1211": "ち",
        "1212": "ゃ",
        "1213": "ㄅ",
        "1214": "注",
        "1215": "符",
        "1216": "ㄖ",
        "1217": "ㄦ",
        "1218": "ㄢ",
        "1219": "ㄝ",
        "1220": "《",
        "1221": "》",
        "1222": "入",
        "1223": "転",
        "1224": "換",
        "1225": "姿",
        "1226": "勢",
        "1227": "構",
        "1228": "ា",
        "1229": "九",
        "1230": "術",
        "1231": "髀",
        "1232": "ׂ",
        "1233": "ธ",
        "1234": "ุ",
        "1235": "ี",
        "1236": "ป",
        "1237": "ร",
        "1238": "ิ",
        "1239": "ศ",
        "1240": "น",
        "1241": "≟",
        "1242": "翔",
        "1243": "鶴",
        "1244": "Ͷ",
        "1245": "Ⲋ",
        "1246": "ᚠ",
        "1247": "Ւ",
        "1248": "闇",
        "1249": "ֶ",
        "1250": "ַ",
        "1251": "『",
        "1252": "』",
        "1253": "片",
        "1254": "龘",
        "1255": "雷",
        "1256": "䨻",
        "1257": "訓",
        "1258": "売",
        "1259": "毎",
        "1260": "旗",
        "1261": "↓",
        "1262": "へ",
        "1263": "。",
        "1264": "縦",
        "1265": "横",
        "1266": "ꞝ",
        "1267": "件",
        "1268": "ʝ",
        "1269": "恥",
        "1270": "朱",
        "1271": "親",
        "1272": "亲",
        "1273": "說",
        "1274": "说",
        "1275": "彙",
        "1276": "汇",
        "1277": "梅",
        "1278": "膺",
        "1279": "祚",
        "1280": "熙",
        "1281": "妞",
        "1282": "她",
        "1283": "姓",
        "1284": "妾",
        "1285": "妆",
        "1286": "奿",
        "1287": "妝",
        "1288": "宀",
        "1289": "邗",
        "1290": "阞",
        "1291": "飠",
        "1292": "饣",
        "1293": "鬯",
        "1294": "鬱",
        "1295": "羢",
        "1296": "儀",
        "1297": "羬",
        "1298": "忄",
        "1299": "欠",
        "1300": "番",
        "1301": "ે",
        "1302": "ડ",
        "1303": "ሐ",
        "1304": "ጫ",
        "1305": "ڀ",
        "1306": "ٽ",
        "1307": "̍",
        "1308": "研",
        "1309": "究",
        "1310": "͜",
        "1311": "第",
        "1312": "防",
        "1313": "衛",
        "1314": "Ϟ",
        "1315": "Ҁ",
        "1316": "臭",
        "1317": "树",
        "1318": "凤",
        "1319": "眼",
        "1320": "ᆸ",
        "1321": "ᄎ",
        "1322": "⇌",
        "1323": "敦",
        "1324": "恋",
        "1325": "引",
        "1326": "箕",
        "1327": "嶽",
        "1328": "六",
        "1329": "美",
        "1330": "役",
        "1331": "撰",
        "1332": "狂",
        "1333": "潮",
        "1334": "干",
        "1335": "雨",
        "1336": "靴",
        "1337": "დ",
        "1338": "ვ",
        "1339": "თ",
        "1340": "ღ",
        "1341": "შ",
        "1342": "ლ",
        "1343": "盟",
        "1344": "Э",
        "1345": "兩",
        "1346": "两",
        "1347": "萩",
        "1348": "望",
        "1349": "選",
        "1350": "組",
        "1351": "性",
        "1352": "ቤ",
        "1353": "׳",
        "1354": "次",
        "1355": "േ",
        "1356": "ജ",
        "1357": "ൈ",
        "1358": "ശ",
        "1359": "യ",
        "1360": "ള",
        "1361": "ൻ",
        "1362": "∅",
        "1363": "♫",
        "1364": "面",
        "1365": "ᅪ",
        "1366": "ᄂ",
        "1367": "ᄏ",
        "1368": "Ж",
        "1369": "來",
        "1370": "央",
        "1371": "红",
        "1372": "队",
        "1373": "Ϧ",
        "1374": "ϧ",
        "1375": "ϭ",
        "1376": "ϯ",
        "1377": "ϥ",
        "1378": "☿",
        "1379": "辰",
        "1380": "猞",
        "1381": "猁",
        "1382": "ђ",
        "1383": "ћ",
        "1384": "҅",
        "1385": "҆",
        "1386": "͵",
        "1387": "盒",
        "1388": "厅",
        "1389": "单",
        "1390": "位",
        "1391": "承",
        "1392": "寿",
        "1393": "乱",
        "1394": "清",
        "1395": "以",
        "1396": "条",
        "1397": "仲",
        "1398": "曽",
        "1399": "知",
        "1400": "兵",
        "1401": "延",
        "1402": "旭",
        "1403": "範",
        "1404": "瀬",
        "1405": "征",
        "1406": "夷",
        "1407": "幕",
        "1408": "秀",
        "1409": "弁",
        "1410": "慶",
        "1411": "奥",
        "1412": "吾",
        "1413": "妻",
        "1414": "Ͳ",
        "1415": "ͳ",
        "1416": "ϻ",
        "1417": "Ϻ",
        "1418": "及",
        "1419": "警",
        "1420": "察",
        "1421": "雇",
        "1422": "用",
        "1423": "均",
        "1424": "等",
        "1425": "ኒ",
        "1426": "ክ",
        "1427": "ህ",
        "1428": "ለ",
        "1429": "雪",
        "1430": "浪",
        "1431": "厳",
        "1432": "殿",
        "1433": "壇",
        "1434": "ኰ",
        "1435": "ወ",
        "1436": "ደ",
        "1437": "ሚ",
        "1438": "ቃ",
        "1439": "ъ",
        "1440": "抜",
        "1441": "尸",
        "1442": "殭",
        "1443": "魄",
        "1444": "襄",
        "1445": "豹",
        "1446": "ส",
        "1447": "ื",
        "1448": "อ",
        "1449": "ย",
        "1450": "ม",
        "1451": "ฆ",
        "1452": "腸",
        "1453": "̤",
        "1454": "ዘ",
        "1455": "የ",
        "1456": "̺",
        "1457": "હ",
        "1458": "ન",
        "1459": "સ",
        "1460": "ક",
        "1461": "ર",
        "1462": "ચ",
        "1463": "ધ",
        "1464": "ી",
        "1465": "ዓ",
        "1466": "ፄ",
        "1467": "ሉ",
        "1468": "ታ",
        "1469": "ጠ",
        "1470": "ቅ",
        "1471": "ந",
        "1472": "த",
        "1473": "ய",
        "1474": "״",
        "1475": "ज",
        "1476": "ヮ",
        "1477": "凱",
        "1478": "宏",
        "1479": "忠",
        "1480": "列",
        "1481": "邦",
        "1482": "魂",
        "1483": "˨",
        "1484": "˦",
        "1485": "照",
        "1486": "棚",
        "1487": "陛",
        "1488": "閣",
        "1489": "務",
        "1490": "参",
        "1491": "最",
        "1492": "裁",
        "1493": "判",
        "1494": "官",
        "1495": "全",
        "1496": "障",
        "1497": "兜",
        "1498": "町",
        "1499": "ɻ",
        "1500": "印",
        "1501": "度",
        "1502": "錢",
        "1503": "穆",
        "1504": "陸",
        "1505": "區",
        "1506": "自",
        "1507": "辖",
        "1508": "市",
        "1509": "别",
        "1510": "个",
        "1511": "户",
        "1512": "圓",
        "1513": "币",
        "1514": "幣",
        "1515": "易",
        "1516": "স",
        "1517": "্",
        "1518": "জ",
        "1519": "ি",
        "1520": "র",
        "1521": "া",
        "1522": "়",
        "1523": "ˑ",
        "1524": "ɘ",
        "1525": "☧",
        "1526": "ײ",
        "1527": "狼",
        "1528": "羌",
        "1529": "⊥",
        "1530": "∧",
        "1531": "悪",
        "1532": "曜",
        "1533": "隠",
        "1534": "津",
        "1535": "波",
        "1536": "要",
        "1537": "虹",
        "1538": "⚜",
        "1539": "𐀈",
        "1540": "𐀁",
        "1541": "𐀫",
        "1542": "【",
        "1543": "】",
        "1544": "任",
        "1545": "蹴",
        "1546": "鞠",
        "1547": "ʋ",
        "1548": "饼",
        "1549": "ユ",
        "1550": "嫁",
        "1551": "団",
        "1552": "茶",
        "1553": "嫌",
        "1554": "夏",
        "1555": "休",
        "1556": "ृ",
        "1557": "च",
        "1558": "ब",
        "1559": "ण",
        "1560": "悉",
        "1561": "昙",
        "1562": "ქ",
        "1563": "გ",
        "1564": "ზ",
        "1565": "ფ",
        "1566": "战",
        "1567": "☉",
        "1568": "纟",
        "1569": "杉",
        "1570": "問",
        "1571": "童",
        "1572": "賈",
        "1573": "隱",
        "1574": "遇",
        "1575": "商",
        "1576": "斯",
        "1577": "程",
        "1578": "邈",
        "1579": "隸",
        "1580": "昇",
        "1581": "ⵜ",
        "1582": "க",
        "1583": "ல",
        "1584": "葱",
        "1585": "嶺",
        "1586": "ې",
        "1587": "帕",
        "1588": "米",
        "1589": "∏",
        "1590": "∪",
        "1591": "⩾",
        "1592": "ɨ",
        "1593": "ܝ",
        "1594": "ܘ",
        "1595": "ܐ",
        "1596": "客",
        "1597": "己",
        "1598": "宅",
        "1599": "急",
        "1600": "言",
        "1601": "や",
        "1602": "包",
        "1603": "れ",
        "1604": "ீ",
        "1605": "வ",
        "1606": "ஜ",
        "1607": "ᄑ",
        "1608": "ᅢ",
        "1609": "遠",
        "1610": "負",
        "1611": "押",
        "1612": "潰",
        "1613": "ヨ",
        "1614": "両",
        "1615": "长",
        "1616": "曲",
        "1617": "目",
        "1618": "𐌼",
        "1619": "𐌾",
        "1620": "𐌲",
        "1621": "ʍ",
        "1622": "♅",
        "1623": "⛢",
        "1624": "📞",
        "1625": "︠",
        "1626": "︡",
        "1627": "埴",
        "1628": "輪",
        "1629": "弧",
        "1630": "陵",
        "1631": "資",
        "1632": "足",
        "1633": "舞",
        "1634": "台",
        "1635": "飛",
        "1636": "崎",
        "1637": "岩",
        "1638": "紀",
        "1639": "船",
        "1640": "阿",
        "1641": "根",
        "1642": "装",
        "1643": "飾",
        "1644": "林",
        "1645": "磐",
        "1646": "静",
        "1647": "穴",
        "1648": "埼",
        "1649": "Մ",
        "1650": "ծ",
        "1651": "因",
        "1652": "果",
        "1653": "髷",
        "1654": "刀",
        "1655": "村",
        "1656": "錦",
        "1657": "報",
        "1658": "庭",
        "1659": "幼",
        "1660": "樺",
        "1661": "奉",
        "1662": "公",
        "1663": "主",
        "1664": "宍",
        "1665": "啓",
        "1666": "腕",
        "1667": "慧",
        "1668": "唯",
        "1669": "識",
        "1670": "遊",
        "1671": "净",
        "1672": "淨",
        "1673": "ᅳ",
        "1674": "纵",
        "1675": "觀",
        "1676": "蕊",
        "1677": "狀",
        "1678": "溫",
        "1679": "滿",
        "1680": "張",
        "1681": "萬",
        "1682": "店",
        "1683": "彪",
        "1684": "龙",
        "1685": "极",
        "1686": "袈",
        "1687": "裟",
        "1688": "指",
        "1689": "师",
        "1690": "傅",
        "1691": "檀",
        "1692": "香",
        "1693": "佛",
        "1694": "錫",
        "1695": "杖",
        "1696": "象",
        "1697": "牙",
        "1698": "岸",
        "1699": "迪",
        "1700": "瓦",
        "1701": "ڨ",
        "1702": "ẞ",
        "1703": "Ʃ",
        "1704": "ٍ",
        "1705": "ڢ",
        "1706": "ڧ",
        "1707": "颪",
        "1708": "補",
        "1709": "陀",
        "1710": "圍",
        "1711": "云",
        "1712": "笥",
        "1713": "め",
        "1714": "昔",
        "1715": "使",
        "1716": "優",
        "1717": "砂",
        "1718": "未",
        "1719": "危",
        "1720": "♆",
        "1721": "兔",
        "1722": "♇",
        "1723": "ⵡ",
        "1724": "ⵛ",
        "1725": "籌",
        "1726": "粧",
        "1727": "室",
        "1728": "厠",
        "1729": "憚",
        "1730": "虎",
        "1731": "温",
        "1732": "",
        "1733": "थ",
        "1734": "能",
        "1735": "観",
        "1736": "喜",
        "1737": "Բ",
        "1738": "Ռ",
        "1739": "椒",
        "1740": "♥",
        "1741": "ょ",
        "1742": "笑",
        "1743": "送",
        "1744": "念",
        "1745": "姉",
        "1746": "妹",
        "1747": "畑",
        "1748": "ゅ",
        "1749": "も",
        "1750": "編",
        "1751": "啟",
        "1752": "庚",
        "1753": "♀",
        "1754": "ㄆ",
        "1755": "ㄇ",
        "1756": "ㄈ",
        "1757": "號",
        "1758": "ㄤ",
        "1759": "˞",
        "1760": "ㄡ",
        "1761": "ㄟ",
        "1762": "ㄜ",
        "1763": "ɖ",
        "1764": "ʣ",
        "1765": "ʦ",
        "1766": "ㄓ",
        "1767": "ㄔ",
        "1768": "ㄕ",
        "1769": "ㄗ",
        "1770": "ㄘ",
        "1771": "ㄙ",
        "1772": "渙",
        "1773": "鸛",
        "1774": "雀",
        "1775": "樓",
        "1776": "ㄌ",
        "1777": "作",
        "1778": "炒",
        "1779": "争",
        "1780": "ច",
        "1781": "ម",
        "1782": "្",
        "1783": "ប",
        "1784": "៉",
        "1785": "占",
        "1786": "常",
        "1787": "e ",
        "1788": "s ",
        "1789": "é",
        "1790": "t ",
        "1791": "en",
        "1792": "es ",
        "1793": "on",
        "1794": ", ",
        "1795": "an",
        "1796": "de ",
        "1797": "r ",
        "1798": "a ",
        "1799": "ti",
        "1800": "ou",
        "1801": "qu",
        "1802": "in",
        "1803": "le ",
        "1804": "es",
        "1805": "er",
        "1806": "la ",
        "1807": "tr",
        "1808": "ai",
        "1809": "ar",
        "1810": ". ",
        "1811": "au",
        "1812": "eu",
        "1813": "et ",
        "1814": "or",
        "1815": "on ",
        "1816": "un",
        "1817": "is",
        "1818": "em",
        "1819": "ent ",
        "1820": "al",
        "1821": "pr",
        "1822": "̀ ",
        "1823": "les ",
        "1824": "è",
        "1825": "om",
        "1826": "à ",
        "1827": "il",
        "1828": "el",
        "1829": "en ",
        "1830": "re ",
        "1831": "si",
        "1832": "ch",
        "1833": "du",
        "1834": "des ",
        "1835": "l'",
        "1836": "é ",
        "1837": "e, ",
        "1838": "te ",
        "1839": "pa",
        "1840": "er ",
        "1841": "oi",
        "1842": "que ",
        "1843": "ri",
        "1844": "du ",
        "1845": "d'",
        "1846": "ati",
        "1847": "li",
        "1848": "con",
        "1849": "su",
        "1850": "est ",
        "1851": "i ",
        "1852": "dé",
        "1853": "lu",
        "1854": "re",
        "1855": "av",
        "1856": "di",
        "1857": "un ",
        "1858": "ce ",
        "1859": "x ",
        "1860": "ans ",
        "1861": "ant ",
        "1862": "at",
        "1863": "une ",
        "1864": "ré",
        "1865": "me ",
        "1866": "se ",
        "1867": "it",
        "1868": ".\n",
        "1869": "de la ",
        "1870": "ent",
        "1871": "ement ",
        "1872": "com",
        "1873": "ac",
        "1874": "am",
        "1875": "po",
        "1876": "ag",
        "1877": "par",
        "1878": "au ",
        "1879": "ci",
        "1880": "ec",
        "1881": "ne ",
        "1882": "our ",
        "1883": "dans ",
        "1884": "tre ",
        "1885": "ain",
        "1886": "ont ",
        "1887": "par ",
        "1888": "et",
        "1889": ". L",
        "1890": "ét",
        "1891": "as",
        "1892": "our",
        "1893": "d ",
        "1894": "ée ",
        "1895": "19",
        "1896": "eur",
        "1897": "ap",
        "1898": "s, ",
        "1899": "qui ",
        "1900": "s de ",
        "1901": "ab",
        "1902": "pro",
        "1903": "pour ",
        "1904": "ouv",
        "1905": "il ",
        "1906": "vi",
        "1907": "ol",
        "1908": "tu",
        "1909": "ation ",
        "1910": "« ",
        "1911": "plu",
        "1912": "ait ",
        "1913": "ran",
        "1914": "son ",
        "1915": "ex",
        "1916": "es, ",
        "1917": "eur ",
        "1918": "pu",
        "1919": "ê",
        "1920": "pl",
        "1921": "ér",
        "1922": "tion ",
        "1923": "im",
        "1924": "cu",
        "1925": "ff",
        "1926": "onn",
        "1927": "ant",
        "1928": " de ",
        "1929": "ons ",
        "1930": "sur ",
        "1931": "aux ",
        "1932": " et ",
        "1933": "00",
        "1934": "e. ",
        "1935": "res ",
        "1936": "eux ",
        "1937": "ni",
        "1938": "n ",
        "1939": "st",
        "1940": "pré",
        "1941": "por",
        "1942": "és ",
        "1943": "éri",
        "1944": "plus ",
        "1945": "per",
        "1946": "l ",
        "1947": "ais ",
        "1948": "gu",
        "1949": "ec ",
        "1950": "op",
        "1951": "elle ",
        "1952": "sont ",
        "1953": "ot",
        "1954": "qu'",
        "1955": ": ",
        "1956": "ter",
        "1957": "y ",
        "1958": "de l'",
        "1959": "gr",
        "1960": "ès ",
        "1961": "avec ",
        "1962": "ère ",
        "1963": "eurs ",
        "1964": "ses ",
        "1965": "is ",
        "1966": "fi",
        "1967": "for",
        "1968": "ss",
        "1969": "cl",
        "1970": "oc",
        "1971": "end",
        "1972": "ées ",
        "1973": "tou",
        "1974": "mo",
        "1975": ".\nL",
        "1976": "à la ",
        "1977": "ver",
        "1978": "se",
        "1979": "de",
        "1980": "pi",
        "1981": "ist",
        "1982": "ques ",
        "1983": "us",
        "1984": "0 ",
        "1985": "ég",
        "1986": "ill",
        "1987": "e de ",
        "1988": "al ",
        "1989": "si ",
        "1990": "ro",
        "1991": "ces ",
        "1992": "ou ",
        "1993": "sa ",
        "1994": "in ",
        "1995": "s'",
        "1996": "res",
        "1997": "th",
        "1998": "ois ",
        "1999": "parti",
        "2000": "ad",
        "2001": ") ",
        "2002": "gn",
        "2003": "mon",
        "2004": "ur",
        "2005": "él",
        "2006": "o ",
        "2007": "aire ",
        "2008": "ette ",
        "2009": "nom",
        "2010": "comme ",
        "2011": "ie ",
        "2012": "ob",
        "2013": "ité ",
        "2014": "emb",
        "2015": "l’",
        "2016": "ation",
        "2017": "emi",
        "2018": "tes ",
        "2019": "ell",
        "2020": "sou",
        "2021": "én",
        "2022": "), ",
        "2023": "comm",
        "2024": "té ",
        "2025": ". Le ",
        "2026": "ser",
        "2027": "age ",
        "2028": "à l'",
        "2029": "18",
        "2030": "ann",
        "2031": "el ",
        "2032": "ement",
        "2033": "pas ",
        "2034": "gi",
        "2035": ". C",
        "2036": "Il ",
        "2037": "En ",
        "2038": "cor",
        "2039": "été ",
        "2040": "min",
        "2041": "bu",
        "2042": "tri",
        "2043": "peu",
        "2044": "premi",
        "2045": "an ",
        "2046": "deux ",
        "2047": "mais ",
        "2048": "cons",
        "2049": "port",
        "2050": "ale ",
        "2051": "dis",
        "2052": "ors ",
        "2053": "tres ",
        "2054": "mar",
        "2055": "te",
        "2056": "cri",
        "2057": "mê",
        "2058": "Ch",
        "2059": "bi",
        "2060": "ic",
        "2061": "ence ",
        "2062": "ce",
        "2063": ", le ",
        "2064": "â",
        "2065": "ç",
        "2066": "aut",
        "2067": "ém",
        "2068": "É",
        "2069": "fin",
        "2070": "» ",
        "2071": "co",
        "2072": "re, ",
        "2073": "ph",
        "2074": "n'",
        "2075": "it ",
        "2076": "ten",
        "2077": "20",
        "2078": "ail",
        "2079": "and",
        "2080": "ori",
        "2081": "ang",
        "2082": "ass",
        "2083": "200",
        "2084": "entre ",
        "2085": "um",
        "2086": "oup",
        "2087": ". Les ",
        "2088": "enn",
        "2089": "ev",
        "2090": "ille ",
        "2091": "ts ",
        "2092": "d’",
        "2093": ". La ",
        "2094": "alement ",
        "2095": "cour",
        "2096": "ess",
        "2097": "u ",
        "2098": "vo",
        "2099": "lis",
        "2100": "mes ",
        "2101": "br",
        "2102": "emp",
        "2103": "prés",
        "2104": "d'une ",
        "2105": "leur ",
        "2106": "pos",
        "2107": "ers ",
        "2108": "at ",
        "2109": "all",
        "2110": "ance ",
        "2111": "ca",
        "2112": "sion ",
        "2113": "près ",
        "2114": "oit ",
        "2115": "oir ",
        "2116": "ais",
        "2117": "enti",
        "2118": "d'un ",
        "2119": "iv",
        "2120": "eau ",
        "2121": "ois",
        "2122": "puis ",
        "2123": "dans le ",
        "2124": "ème ",
        "2125": "gran",
        "2126": "man",
        "2127": "der",
        "2128": "ment ",
        "2129": "c ",
        "2130": "Fran",
        "2131": "cette ",
        "2132": "f ",
        "2133": ". D",
        "2134": "ay",
        "2135": ". A",
        "2136": ". Il ",
        "2137": "ge ",
        "2138": "bl",
        "2139": "5 ",
        "2140": "fait ",
        "2141": "entr",
        "2142": "on, ",
        "2143": "aus",
        "2144": "; ",
        "2145": "ations ",
        "2146": "ace ",
        "2147": "col",
        "2148": "bli",
        "2149": "et de ",
        "2150": "même ",
        "2151": "ine ",
        "2152": "t, ",
        "2153": "e-",
        "2154": "alis",
        "2155": "ve ",
        "2156": "aient ",
        "2157": "1 ",
        "2158": "ens ",
        "2159": "Al",
        "2160": "cer",
        "2161": "en 19",
        "2162": "tin",
        "2163": "dans la ",
        "2164": "être ",
        "2165": "qui",
        "2166": "siè",
        "2167": "édi",
        "2168": "̂t ",
        "2169": "rel",
        "2170": "cul",
        "2171": "so",
        "2172": "», ",
        "2173": "che ",
        "2174": "II",
        "2175": "ing",
        "2176": "ven",
        "2177": "An",
        "2178": "int",
        "2179": "es de ",
        "2180": "mu",
        "2181": "vis",
        "2182": "t-",
        "2183": "os",
        "2184": "pers",
        "2185": "2 ",
        "2186": "oire ",
        "2187": "jour",
        "2188": "Par",
        "2189": "que, ",
        "2190": "car",
        "2191": "dont ",
        "2192": "fon",
        "2193": "eu ",
        "2194": "qu'il ",
        "2195": "mi",
        "2196": "Mar",
        "2197": "ren",
        "2198": "nouv",
        "2199": "sur",
        "2200": "tru",
        "2201": "ju",
        "2202": "mil",
        "2203": "sy",
        "2204": "ouver",
        "2205": "tions ",
        "2206": "201",
        "2207": "fu",
        "2208": "titu",
        "2209": "dans les ",
        "2210": "pe",
        "2211": "ard",
        "2212": "s et ",
        "2213": "elles ",
        "2214": "inter",
        "2215": "\n\n",
        "2216": "hi",
        "2217": "fr",
        "2218": "anc",
        "2219": "cip",
        "2220": "tique ",
        "2221": "jou",
        "2222": "ens",
        "2223": "dr",
        "2224": "lui ",
        "2225": "te de ",
        "2226": "iss",
        "2227": "ans",
        "2228": "rec",
        "2229": "pend",
        "2230": "publi",
        "2231": "eff",
        "2232": "tout ",
        "2233": "ins",
        "2234": "tain",
        "2235": "ord",
        "2236": "aussi ",
        "2237": "é, ",
        "2238": "conn",
        "2239": "ents ",
        "2240": "ru",
        "2241": "ra",
        "2242": "aires ",
        "2243": "ali",
        "2244": "3 ",
        "2245": "4 ",
        "2246": "er, ",
        "2247": "alors ",
        "2248": "diff",
        "2249": "ir",
        "2250": "déc",
        "2251": "des",
        "2252": "uni",
        "2253": "ils ",
        "2254": "é par ",
        "2255": "fran",
        "2256": "ins ",
        "2257": ", la ",
        "2258": "év",
        "2259": "temp",
        "2260": "où ",
        "2261": "aiss",
        "2262": "gne ",
        "2263": "e siè",
        "2264": "z ",
        "2265": "après ",
        "2266": "rem",
        "2267": "ise ",
        "2268": "ainsi ",
        "2269": "6 ",
        "2270": "trav",
        "2271": "autres ",
        "2272": "e.\n",
        "2273": "trouv",
        "2274": "leurs ",
        "2275": "péri",
        "2276": "lo",
        "2277": "tiv",
        "2278": "ction ",
        "2279": "sous ",
        "2280": "jus",
        "2281": "également ",
        "2282": "eux",
        "2283": "ach",
        "2284": "ite ",
        "2285": "t de ",
        "2286": ". En ",
        "2287": "re de ",
        "2288": "contr",
        "2289": "personn",
        "2290": "fois ",
        "2291": "a, ",
        "2292": "éd",
        "2293": "app",
        "2294": "gén",
        "2295": "ants ",
        "2296": "posi",
        "2297": "7 ",
        "2298": ".\nLe ",
        "2299": ". S",
        "2300": "no",
        "2301": "sans ",
        "2302": "hom",
        "2303": "mor",
        "2304": "le",
        "2305": ". L'",
        "2306": "aî",
        "2307": "aison ",
        "2308": "prin",
        "2309": "nation",
        "2310": "tant ",
        "2311": "ong",
        "2312": "et la ",
        "2313": "vers ",
        "2314": "œu",
        "2315": "présent",
        "2316": "k ",
        "2317": "èr",
        "2318": "Ar",
        "2319": "cré",
        "2320": "uti",
        "2321": "form",
        "2322": "seu",
        "2323": "pe ",
        "2324": "enne ",
        "2325": "ue ",
        "2326": "sur le ",
        "2327": "ères ",
        "2328": "derni",
        "2329": "pul",
        "2330": "comp",
        "2331": "not",
        "2332": "ect",
        "2333": "don",
        "2334": "sieurs ",
        "2335": "fin ",
        "2336": "était ",
        "2337": "ard ",
        "2338": "es et ",
        "2339": "arti",
        "2340": "essi",
        "2341": ". P",
        "2342": "hist",
        "2343": "eau",
        "2344": ", les ",
        "2345": "très ",
        "2346": "serv",
        "2347": "que le ",
        "2348": "rou",
        "2349": "ée par ",
        "2350": "'est ",
        "2351": "et le ",
        "2352": "8 ",
        "2353": "aff",
        "2354": "tan",
        "2355": "pon",
        "2356": "anci",
        "2357": "pay",
        "2358": "génér",
        "2359": "ture ",
        "2360": "and ",
        "2361": "olo",
        "2362": "La ",
        "2363": "..",
        "2364": "oy",
        "2365": "erre ",
        "2366": "fil",
        "2367": "m ",
        "2368": "ô",
        "2369": "id",
        "2370": "éch",
        "2371": "perm",
        "2372": "rap",
        "2373": "able ",
        "2374": "ir ",
        "2375": "cou",
        "2376": ".\nLa ",
        "2377": "pass",
        "2378": "er les ",
        "2379": "as ",
        "2380": "tour",
        "2381": ", il ",
        "2382": "att",
        "2383": "El",
        "2384": "que les ",
        "2385": "s-",
        "2386": "ain ",
        "2387": "produ",
        "2388": "gl",
        "2389": "sor",
        "2390": "sur la ",
        "2391": "contre ",
        "2392": "équi",
        "2393": "org",
        "2394": "le de ",
        "2395": "années ",
        "2396": "clu",
        "2397": "17",
        "2398": "mat",
        "2399": "utilis",
        "2400": "trois ",
        "2401": "quel",
        "2402": "Th",
        "2403": "cel",
        "2404": "import",
        "2405": "oi ",
        "2406": "tionn",
        "2407": "sp",
        "2408": "premier ",
        "2409": "tion",
        "2410": "certain",
        "2411": "nombr",
        "2412": "off",
        "2413": "poli",
        "2414": "première ",
        "2415": "atu",
        "2416": "ber",
        "2417": "Le ",
        "2418": "cin",
        "2419": "199",
        "2420": "ente ",
        "2421": "franç",
        "2422": "tra",
        "2423": "ville ",
        "2424": "cr",
        "2425": "che",
        "2426": "end ",
        "2427": "depuis ",
        "2428": "voi",
        "2429": "rom",
        "2430": "dou",
        "2431": "ante ",
        "2432": "000 ",
        "2433": "ma",
        "2434": "cat",
        "2435": "gue ",
        "2436": "que la ",
        "2437": "peut ",
        "2438": "est",
        "2439": "ul",
        "2440": "9 ",
        "2441": "bien ",
        "2442": "et les ",
        "2443": "écri",
        "2444": "ages ",
        "2445": "ari",
        "2446": "plac",
        "2447": "is, ",
        "2448": "pour la ",
        "2449": "avant ",
        "2450": "commun",
        "2451": "né",
        "2452": "er la ",
        "2453": "œuv",
        "2454": "fac",
        "2455": "embre ",
        "2456": "popul",
        "2457": "soci",
        "2458": "jeu",
        "2459": "vient ",
        "2460": "abl",
        "2461": "er le ",
        "2462": "amment ",
        "2463": "elon ",
        "2464": "Sain",
        "2465": "to",
        "2466": "appar",
        "2467": "plusieurs ",
        "2468": "dans l'",
        "2469": "qua",
        "2470": "Ét",
        "2471": "enc",
        "2472": "ième ",
        "2473": "In",
        "2474": "lor",
        "2475": "encor",
        "2476": "ord ",
        "2477": "ements ",
        "2478": "anis",
        "2479": "grap",
        "2480": "anti",
        "2481": "us ",
        "2482": "e, le ",
        "2483": "vel",
        "2484": "ique ",
        "2485": "constru",
        "2486": "débu",
        "2487": "arg",
        "2488": "hab",
        "2489": "fai",
        "2490": "é de ",
        "2491": "aill",
        "2492": "situ",
        "2493": "étr",
        "2494": "sid",
        "2495": "group",
        "2496": "esse ",
        "2497": "princip",
        "2498": "et, ",
        "2499": "avoir ",
        "2500": "suiv",
        "2501": "h ",
        "2502": "vent ",
        "2503": "ar ",
        "2504": "tent ",
        "2505": ".\nLes ",
        "2506": "ation de ",
        "2507": "cle ",
        "2508": "e. C",
        "2509": "aine ",
        "2510": "sé",
        "2511": "e siècl",
        "2512": "trans",
        "2513": "En",
        "2514": "bre ",
        "2515": "— ",
        "2516": "chi",
        "2517": "par le ",
        "2518": "hu",
        "2519": "ion ",
        "2520": "pendant ",
        "2521": ": « ",
        "2522": "aur",
        "2523": "ici",
        "2524": "ques",
        "2525": "Jo",
        "2526": "pli",
        "2527": "régi",
        "2528": "cep",
        "2529": "esti",
        "2530": "vir",
        "2531": "dom",
        "2532": "a été ",
        "2533": "fl",
        "2534": "ment",
        "2535": ") et ",
        "2536": ".\n\n",
        "2537": "ich",
        "2538": "place ",
        "2539": "par la ",
        "2540": "ités ",
        "2541": "ous ",
        "2542": "partie ",
        "2543": "iste ",
        "2544": "arri",
        "2545": "ales ",
        "2546": "ili",
        "2547": "ble ",
        "2548": "pour",
        "2549": ", et ",
        "2550": "alité ",
        "2551": "me",
        "2552": "sur les ",
        "2553": "00 ",
        "2554": ", qui ",
        "2555": "coup",
        "2556": "jusqu'",
        "2557": "cham",
        "2558": "tement ",
        "2559": "avi",
        "2560": "men",
        "2561": "part ",
        "2562": "ce qui ",
        "2563": "Je",
        "2564": "avait ",
        "2565": "can",
        "2566": "notamment ",
        "2567": "eaux ",
        "2568": ".\nA",
        "2569": "sc",
        "2570": "Qu",
        "2571": "cher",
        "2572": "te, ",
        "2573": "bat",
        "2574": "Con",
        "2575": "Gu",
        "2576": " (",
        "2577": "os ",
        "2578": "aux",
        "2579": "réalis",
        "2580": "Su",
        "2581": "par les ",
        "2582": "peti",
        "2583": "s de l'",
        "2584": ".\nD",
        "2585": "od",
        "2586": "ret",
        "2587": "autre ",
        "2588": "soit ",
        "2589": "é à ",
        "2590": "éli",
        "2591": "me, ",
        "2592": "n'est ",
        "2593": "dev",
        "2594": "Elle ",
        "2595": "lors ",
        "2596": "tion de ",
        "2597": "Mon",
        "2598": ", l'",
        "2599": "oci",
        "2600": "onne ",
        "2601": "empl",
        "2602": "pè",
        "2603": "coll",
        "2604": "encore ",
        "2605": "int ",
        "2606": "vol",
        "2607": "celu",
        "2608": "oli",
        "2609": "és",
        "2610": "différ",
        "2611": "ai ",
        "2612": "air",
        "2613": "pouv",
        "2614": "gar",
        "2615": "d'A",
        "2616": "faire ",
        "2617": "ter ",
        "2618": "chev",
        "2619": "que de ",
        "2620": "pour les ",
        "2621": "moins ",
        "2622": "ée, ",
        "2623": "ène ",
        "2624": "dem",
        "2625": "endre ",
        "2626": "velop",
        "2627": "198",
        "2628": "étu",
        "2629": "culi",
        "2630": "bri",
        "2631": "inf",
        "2632": "pose ",
        "2633": "arm",
        "2634": "épo",
        "2635": "indi",
        "2636": "iti",
        "2637": "% ",
        "2638": "dévelop",
        "2639": "y, ",
        "2640": "habit",
        "2641": "ellement ",
        "2642": "sep",
        "2643": "éti",
        "2644": "Saint-",
        "2645": "suite ",
        "2646": "pri",
        "2647": "volu",
        "2648": "secon",
        "2649": "az",
        "2650": "jours ",
        "2651": "donn",
        "2652": "vill",
        "2653": "France ",
        "2654": "peu ",
        "2655": "de de ",
        "2656": "trai",
        "2657": "représent",
        "2658": "oul",
        "2659": "particuli",
        "2660": "ct",
        "2661": "16",
        "2662": "197",
        "2663": "orig",
        "2664": "embl",
        "2665": "fs ",
        "2666": "tous ",
        "2667": "fic",
        "2668": "prend ",
        "2669": "long",
        "2670": "act",
        "2671": "agn",
        "2672": "194",
        "2673": "ig",
        "2674": "ant la ",
        "2675": "mal",
        "2676": "forme ",
        "2677": "oni",
        "2678": "es. ",
        "2679": ".\nEn ",
        "2680": "euses ",
        "2681": "pris",
        "2682": "souv",
        "2683": "oph",
        "2684": "er de ",
        "2685": "du X",
        "2686": "15",
        "2687": "emble ",
        "2688": "ds ",
        "2689": "omb",
        "2690": "inst",
        "2691": "ée de ",
        "2692": "liv",
        "2693": "constitu",
        "2694": "fut ",
        "2695": "arch",
        "2696": "la",
        "2697": "porte ",
        "2698": "musi",
        "2699": "que",
        "2700": "aque ",
        "2701": "temps ",
        "2702": "0, ",
        "2703": "et des ",
        "2704": "ép",
        "2705": "sol",
        "2706": "Gran",
        "2707": "donc ",
        "2708": "hum",
        "2709": "ci ",
        "2710": "lan",
        "2711": "cap",
        "2712": "ne",
        "2713": "reli",
        "2714": "grande ",
        "2715": "e, la ",
        "2716": "é en ",
        "2717": "suc",
        "2718": "do",
        "2719": "que l'",
        "2720": "cit",
        "2721": "développ",
        "2722": "qu’",
        "2723": "ign",
        "2724": "milli",
        "2725": "trouve ",
        "2726": "succ",
        "2727": "pour le ",
        "2728": "pol",
        "2729": "enf",
        "2730": "dur",
        "2731": "acc",
        "2732": "of ",
        "2733": "fem",
        "2734": "tiques ",
        "2735": "Une ",
        "2736": "tur",
        "2737": "ques, ",
        "2738": "p. ",
        "2739": "fam",
        "2740": "cours ",
        "2741": "élec",
        "2742": "bas",
        "2743": "vie ",
        "2744": "Com",
        "2745": "dat",
        "2746": "celle ",
        "2747": "Les ",
        "2748": "ation des ",
        "2749": "quatre ",
        "2750": "cô",
        "2751": "vers",
        "2752": "ains ",
        "2753": "ant, ",
        "2754": "196",
        "2755": "N ",
        "2756": "direc",
        "2757": "els ",
        "2758": "Char",
        "2759": "envir",
        "2760": "mani",
        "2761": "éric",
        "2762": "sul",
        "2763": "anim",
        "2764": "roy",
        "2765": "oir",
        "2766": "ak",
        "2767": "voy",
        "2768": "ew",
        "2769": "zon",
        "2770": "médi",
        "2771": "ennent ",
        "2772": "ant le ",
        "2773": "Uni",
        "2774": "ologi",
        "2775": "préc",
        "2776": "non ",
        "2777": "partir ",
        "2778": "e. Il ",
        "2779": "nes ",
        "2780": "or ",
        "2781": "pres",
        "2782": "position ",
        "2783": "Au",
        "2784": "St",
        "2785": "Un ",
        "2786": "str"
    }
}